#version: 0.2
Ġ t
h e
Ġ a
i n
e r
Ġt he
o n
r e
Ġ o
a n
a t
e n
Ġ s
e d
i s
o r
e s
Ġ w
i t
Ġ c
a l
Ġo f
a r
Ġa n
Ġ in
Ġ f
Ġ p
Ġ b
i c
Ġan d
in g
i on
a s
r o
Ġ m
Ġt o
Ġ d
l e
o u
Ġ h
Ġ Ð
en t
i l
Ġ S
Ġ A
o m
Ġ T
Ġ C
s t
Ġ re
e l
c t
Ġ 1
o l
Ġ l
Ġ e
Ġ n
Ð ¾
Ġt h
a m
Ġ (
u s
e t
Ġ M
Ð °
a d
at ion
u r
Ð µ
l y
i v
c h
i d
c e
i m
u n
Ġ B
Ġ P
i g
o t
Ġ is
Ġ I
u t
Ġf or
Ġ g
Ñ Ĥ
i r
er s
Ġa s
Ġb e
Ġ on
Ġw as
o w
is t
Ġ H
ĠT he
r a
u l
it h
e m
Ð ¸
he r
Ġ R
t er
Ġs t
a y
Ġw ith
v er
t h
Ġ G
Ġ D
Ġ L
Ġ F
o s
Ġb y
Ġ 2
Ġ1 9
an d
Ġc on
Ġ E
Ġa l
Ġw h
Ð¾ Ð
Ñ ģ
' s
Ġth at
u m
Ġ W
o p
Ġ N
Ñ Ģ
a g
â Ģ
es t
r i
ro m
ou n
o d
a c
Ġp ro
a v
Ġd e
Ð ½
Ġ J
Ġ "
Ġ v
Ġo r
re s
i an
i f
it y
i es
a in
Ġ it
0 0
Ġc om
at e
Ġa t
a b
âĢ ĵ
Ġf rom
Ġa re
o c
Ġs u
p e
Ġ he
or t
Ġe x
Ñ ĥ
q u
u d
Ġ O
ic h
Ð° Ð
ar t
s e
ĠI n
il l
Ġs e
l d
Ġ r
an t
Ġ U
o re
e w
es s
al l
i a
m ent
b er
i al
ig h
ar d
a p
Ġ un
at ed
a k
ic al
Ġh is
iv e
er e
o g
g e
Ġ K
Ðµ Ð
is h
ar y
en d
i p
Ġw ere
Ġc h
u re
ct ion
u p
Ġwh ich
in e
g h
as t
ĠS t
o v
t her
o st
m er
oun t
T he
Ġ us
el l
ou r
Ġ Ċ
Ġp l
c l
r an
on g
or d
Ġ le
e ar
Ġ âĢĵ
p p
p t
ĠC h
am e
Ġ k
u st
Ġn ot
s o
av e
Ġ y
Ñ ı
r it
) ,
u b
Ñ Į
1 9
p er
i re
Ġ V
om e
ou s
Ġ2 0
Ġs h
d er
igh t
Ð¸ Ð
Ġcom p
Ñ ĭ
e ct
i z
c c
f f
it ion
r y
d u
ĠÐ ¿
Ġal so
Ġh ad
k s
Ġcon t
Ġa r
i e
Ġin t
ation s
ig n
ag e
as s
ul t
ic an
en ce
re n
Ñ ĩ
m an
Ġh ave
f er
p l
ĠÐ ²
ĠU n
id e
i b
ĠÐ ½
Ġh as
u e
Ġa d
or y
Ġ Ñģ
Ġ1 8
en s
Ġw he
ter n
p h
ir st
at es
Ġc l
Ġit s
c es
al ly
Ġre s
ou t
at er
Ð º
Ġa b
Ġw or
Ġthe ir
Ð »
) .
Ġp art
ow n
ĠT h
ou ld
Ġb ut
r u
Ġp er
a re
a ct
an g
o ver
Ġal l
ic e
im e
re e
cl ud
on d
ac k
Ġo ther
Ġ2 00
l and
I n
Ġf irst
res s
k e
Ġ im
e p
Ġm an
Ġ ro
Ġth is
Ġd is
ic t
he d
er v
Ġon e
w o
Ġbe c
f ter
el y
un d
Ġwh o
a ch
Ġc an
p ort
Ġ20 1
ation al
i le
Ġ j
Ġ en
ion s
a ce
. .
Ġin clud
t e
ĠI t
o k
ub l
ĠA n
it ed
ĠA mer
e c
ab le
Ġbe en
u gh
Ġ 3
Ġt e
oun d
v el
Ġy ear
ĠA l
or m
a w
os e
or s
it e
ol d
ol l
ent s
c ed
w e
Ġcom m
Ġre c
n e
Ð ´
Ġs p
Ġp re
on e
ur ing
Ġa g
Ġs c
ol og
ou gh
ĠH e
ad e
Ġd es
at h
Ġs y
Ðµ ÑĤ
in t
l es
ar k
on s
am p
Ġt wo
Ġc ount
ÑĤ Ð¾
Ġ -
as e
o b
Ġm ore
ĠE n
Ð ²
i ed
Ġthe y
Ġ Y
Ġint o
ĠAmer ican
Ġo ver
ic s
Ñ Ī
an ce
w n
Ġe v
Ġn e
Ġm e
Ġc ent
re at
Ġp r
Ġsu ch
Ġ Ġ
a us
is s
Ġs pe
m s
ĠA r
ĠÐ º
Ġus ed
Ġo ut
o od
Ġm ost
an s
Ġ ra
Ġcon s
Ġe le
il d
iv ers
Â ł
Ġin d
Ðµ Ð½
ran s
Ġb et
Ġa fter
ing s
Ġre l
ri b
a il
as ed
en er
o y
ul ar
ur y
Ġ19 9
Ġ up
t s
Ġp e
Ġg ro
in d
Ġa ct
u al
Ġp ol
Ġpl ay
is m
ĠÐ ¾
Ġun der
Ġ 4
ro ugh
Ġk n
Ġre g
ĠÐ ´
ĠM ar
i ous
f t
Ġat t
u c
Ġth an
Ġ ÑĤ
Ġn ew
Ñ ħ
2 0
ĠÐ ¸
Ġt ime
ĠÐ ¼
Ġp op
Ġ her
or n
Ġa pp
we en
Ġpro du
ak e
g an
it ies
Ġw ould
Ð¾Ð ²
Ġof f
re d
ot h
u g
Ġfor m
Ġin c
op le
Ġt r
i o
r on
Ġf il
Ġs ome
ĠN ew
ur n
" .
s s
Ñģ ÑĤ
id ent
st em
Ġwhe n
Ġon ly
o h
over n
ĠC om
Ġbet ween
Ġsu b
ic k
if ic
w ard
Ġw e
Ð¸ ÑĤ
r am
Ġe ar
Ġthe re
Ġp h
Ġs o
i et
Ñĥ Ð
Ġd o
at ive
em ber
r al
Ġa cc
Ġin ter
g l
t en
y s
f orm
is hed
in ce
v e
ĠTh is
Ġl ar
Ñ İ
Ġn um
Ġ 5
Ġp o
he n
ow er
ĠD e
Ġ qu
ou th
c ial
al s
t on
ar s
Ġp res
e ver
Ð°Ð »
Ġyear s
Ġc o
Ġ19 8
w ay
Ġh im
Ġf l
e g
Ġt rans
h ip
ut ion
er man
Ġt er
Ġwor k
in es
Ġp ubl
l i
Ġa m
ist s
Ġa c
Ġc all
Ġ 6
Ðµ ÑĢ
Ġc ol
er n
j ect
ĠUn ited
Ġm od
Ġab out
or th
Ġas s
Ġm ay
il y
ĠC ount
in s
Ð¾Ð »
at ing
a h
Ġman y
Ġd uring
Ġse c
1 8
Ġ19 7
t ed
Ġt ra
al e
Ġth rough
" ,
o ol
or k
vel op
Ġsy stem
Ġde f
Ġin v
ct ed
Ġre m
ĠS e
r ic
i x
Ġl oc
oll ow
in al
Ġs et
a j
t le
ver y
he s
ou se
Ġe m
if e
Ġpe ople
Ġsu pp
Ġ est
Ġb l
Ġs erv
os s
c on
Ġb o
ĠL e
Ġd if
t ain
l l
Ġwhe re
aus e
is e
Ġ19 6
Ġthe m
Ð¾Ð ¼
u res
u ro
ĠÐ ±
Ġpro v
ĠC on
an n
am es
Ġn o
i el
Ġkn own
. "
Ġl i
Ġch ar
00 0
Ġg ener
Ġg overn
er ed
Ġm et
Ð°Ð º
ĠCount y
ĠS p
ĠG erman
Ġw rit
Ġus e
Ġf ound
f ore
Ð¾Ð ´
ul ation
c y
ĠSt ates
i ent
ce pt
ÐµÐ »
em ent
Ġm ade
ro und
Ġd ist
oc k
t he
at ure
Ġde velop
Ð° ÑĤ
it s
ra ph
Ġo b
ivers ity
Ġc ity
ĠI s
ĠIn d
a z
en ces
Ġin st
Ġag ain
ch ool
ĠA s
Ġ Ñĩ
e x
Ġ end
Ġ1 7
Ã ©
em b
Ġm us
Ġf e
ow ever
is ion
Ġf am
iz ed
f l
Ġh ist
ment s
olog y
Ð ¼
at her
Ġb u
oh n
Ġa p
ĠF ran
Ġinclud ing
ĠB rit
Ġf ollow
u ally
ĠW ar
Ġex p
Ġs ur
u ch
ĠS c
ction s
Ġfil m
Ġm ov
Ġde c
Ġ Z
Ġl ater
Ġ ent
t y
Ġv ar
ur al
ĠÐ ·
Ġbe ing
c ent
Ġst ud
Ġim p
ical ly
Ġw ell
us s
Ġad d
ĠR e
Ġthe n
iv er
Ġbec ame
ot her
Ð¾ ÑĢ
ĠS h
Ġre p
Ġthe se
gl ish
a x
an y
Ġ 7
Ġan y
in ed
Ġth ree
Ġa ut
a ir
Ġc ap
in n
ĠÐ¿ ÑĢ
ĠÐ½ Ð°
Ġh igh
el f
ab l
Ð¾Ð ³
Ġs ign
Ġs er
om an
Ġ 8
Ġcall ed
ĠP ro
Ġm ed
c k
Ġ ed
iv ed
Ġb oth
.. .
Ġwh ile
Ð¸ Ð½
ib le
Ġm ain
Ġpol it
Ġex t
aj or
Ġnum ber
im es
in ist
i um
i er
Ġe ff
ĠJ ohn
ay s
ian s
ers on
iel d
Ġd ire
Ġgro up
r ist
Ġar t
Ġm on
Ġ ÑĢ
el s
Ġs he
âĢ Ķ
Ġst ate
Ġcent ury
ĠF or
Ġ 9
Ġ19 4
Ġle ad
uro pe
ang u
v ed
il ity
Ġ1 5
Ġ1 6
Ġdif fer
Ġb el
Ġre t
Ġs m
in a
Ġor ig
i ew
Ð° Ð½
o ber
t o
Ð¾Ð ¹
g est
Ġc re
ĠEn glish
ag es
Ġs im
et er
Ñģ Ñı
en n
ar ri
as h
y p
iv es
Ð ¿
Ġo per
ĠC l
Ð¸Ð »
or ld
Ġwor ld
ren ch
Ġde p
f ul
Ġse ver
Ġ1 0
u es
ĠC ol
Ġear ly
y n
le y
ÐµÐ ¼
Ġ19 5
og raph
ĠE urope
e b
Ġw ill
Ġcon st
Ġ .
ant s
he m
ĠA t
Ġgovern ment
t il
v ent
g er
Ġl ong
ut e
t ing
Ġap pe
Ġs ing
ĠUn iversity
Ġo wn
en e
os ed
c ess
ra ct
ar ch
Ġpop ulation
r is
Ð½ Ð¾
p en
Ġsec ond
ĠÐ½ Ðµ
Ġ '
Ġspe c
Ġs ame
l ed
Ð¾ ÑĤ
ord ing
iv ing
ĠK ing
an ge
a id
m y
Ġ Q
are d
Ġcont in
ĠO n
ion al
an k
Ġn ame
Ġsupp ort
i k
it al
v en
ro p
ĠP h
Ġres ult
ĠI I
Ñ Ĩ
r id
ire d
o ot
Ð°Ð ¼
Ġw ar
Ġo cc
Ġm ajor
Ð¾ Ñģ
Ġest abl
as on
Ġcomp le
Ġbe fore
r ing
ĠF rench
Ġdis c
at ic
Ġagain st
Ġc ould
Ġchar act
Ġare a
i od
Ġpart ic
ren t
Ġb ro
il it
ĠB l
ĠCom m
e e
Ġdes ign
ur ch
g y
et s
al es
Ġbec ause
Ġf our
ĠC ar
Ġcount y
os ition
Ġl angu
ĠBrit ish
ill ion
Ġof ten
Ġdes c
ct or
ĠÐ ³
ul l
ĠW orld
ak ing
Ġd id
Ġpro g
i am
Ġ19 3
th ough
Ġsever al
Ġa ir
ic es
Ġsh ow
Ġre le
ĠE m
Ġs ince
Ġs l
ĠW h
Ġpubl ic
un e
Ġl and
Ð ±
s on
Ġcont ro
con om
in c
ĠP r
f or
cc ess
b all
Ġ if
h or
ic a
ch n
e y
Ġl aw
re t
a u
Ġun til
i us
x t
ro ss
Ġinc re
ĠA d
Ġp ower
Ġcons id
ĠA ust
ĠO r
Ġe ach
ĠA f
g ed
id ed
Ġsm all
ĠCh rist
Ġser ies
Ð¸Ð º
tern ational
Ġs oc
r ad
am ed
Ġ $
Ġrem ain
ĠA p
ĠC an
Ġ Ñĥ
in k
p or
ĠN ational
Ġcomm on
Ġe qu
u ed
i ence
Ġrec ord
amp le
Ġp ar
is ed
Ġmus ic
c er
Ġor gan
om et
Ġin s
b le
Ġ1 2
Ġth ose
Ġle g
iss ion
Ġa ge
Ð° ÐµÑĤ
ir d
Ġoff ic
Ġb ack
Ñ ī
1 0
at or
Ġh um
Ð°Ð ·
Ð¾Ð ½
Ġm at
ĠP l
1 7
ĠP ar
r ict
Ġtr ad
Ġpo int
Ġcomm un
y l
o ok
Ġde ath
Ġdiffer ent
Ġ ,
om en
ĠM ay
iv ely
Ġre f
Ġn ear
ĠP ol
ĠG e
Ġre fer
ru ct
ĠJ an
iz e
Ġv ers
Ġlar ge
Ġre qu
res ent
ov e
Ġc ur
Ġy ou
ro du
Ġcl ass
iz ation
Ġinclud e
Ġch ild
Ġg u
Ġre v
Ġper iod
Ġm in
Ġl ife
pe ct
R e
r and
m ed
ĠY ork
om in
id es
Ð° ÑĢ
ĠH owever
Ġli ke
2 00
ĠR ep
W h
oc i
Ġsu ccess
a im
le ct
Ġf un
Ġc ar
ĠÐ µ
if ied
Ġh ouse
ĠS outh
on y
Ġall ow
Ġa round
Ġf in
ri es
a i
emb ers
Ġeff ect
ĠW ill
on t
ol ution
Ġ1 4
Ġp ass
ĠN orth
Ð°Ð ²
tern al
ĠU S
Ġex ample
Ġc ult
Ð° Ñģ
Ġr ight
as es
Ġc or
Ġan n
g et
ĠC ent
iv al
Ġn on
end ed
Ġp erson
Ġim port
Ġb ased
ÐµÐ ´
Ġl it
ilit ary
1 6
Ġprog ram
Ġfam ily
am b
re en
c om
o le
Ġs chool
ĠJ u
od e
ĠE d
p le
Ġ Ñ
ĠM us
iv en
Ġre ce
b y
a e
u ary
Ġo pen
ĠR oman
Ġo ld
Ġl ine
Ġin fl
Ġth ough
ĠThe y
at s
Ġbe gan
ap an
r ation
Ġe conom
o int
1 5
iet y
o x
ug ust
Ġp oss
n er
Ġte am
Ġwith in
Ġele ct
en g
s c
ent ly
Ġv al
19 9
il le
ro w
Ġst and
is c
at tle
Ġapp ro
Ġg o
es e
op h
qu e
Ġw ater
Ġpro cess
Ġ1 3
ĠÐ ¶
ĠA m
Ġd em
Ġor der
Ġ X
ĠÐ »
Ġre st
at ely
Ġm y
Ġev en
Ġm ark
Ġn ow
av ing
Ġen g
ĠIt al
Ġr un
Ġex pl
Ð ·
Ġd r
ĠN ov
Ð¸Ð ²
Ġcount ry
Ġter m
ĠÑĩ ÑĤÐ¾
Ġa v
Ġdesc rib
Ġst r
Ġst art
Ġfollow ing
p ar
r il
Ġm uch
Ġwh at
Ġal ong
re ad
Ġad v
Ġd iv
ur ther
ĠÐ °
at a
Ð ³
ond on
Ġaut hor
ĠB e
il ar
ĠA ugust
es tern
Ġcharact er
Ġe very
Ġpres ent
ĠM an
Ġpro p
a f
en cy
ot t
ĠA b
m ber
al d
Ġhist or
Ð°ÑĤ ÑĮ
al th
ak es
Ġm embers
al ity
Ġhe ad
Ġo pp
Ġret urn
ri pt
ac ed
d ay
fer ences
Ġl ast
v es
s h
Ġm ake
Ġ19 2
Ġus ing
Ġd ue
n ess
Ġp rom
Ġc rit
ĠH ar
ĠG u
t al
Ġd own
Ġex per
Ġr ad
ĠCh ar
Ġf re
or ies
e le
pt ember
Ġbu ild
ĠJ apan
ĠO ct
ep end
Ð ¹
Ġam ong
Ġst ill
ial ly
Ġc our
il t
d om
ĠH is
Ġf act
Ġ very
Ġw ord
Ġte chn
Ġtrad ition
ĠL ondon
Ð½ Ñĭ
ĠEn g
ĠR uss
ce mber
od y
st er
an e
ĠJan uary
id d
Ġpl ace
Ġhist ory
ĠG ree
ĠMar ch
Ġres p
Ġfor mer
Ġre port
Ġ 0
am ent
ain s
ĠWill iam
m e
Ġh and
ÑĥÐ ¶
Ġpop ular
ur g
ubl ic
E x
ra ft
Ġbel ie
ĠThe re
v ers
ĠJ une
ĠGe or
1 2
Ġj ust
re w
Ġre ad
Ġto wn
Ġs aid
ard s
en se
iv il
i or
Ġp ort
Ġst at
land s
ĠJu ly
Ġinfl u
Ġte le
Ġh ome
Ñģ Ðº
ĠSe ptember
Ġpro t
ar m
Ġt em
c il
ĠOct ober
ĠCan ad
Ġgener al
t i
Ġt yp
Ġpolit ical
ed er
Ġl ed
Ġg ame
z e
Ġlangu age
t ic
Ð¾Ð ±
Re ferences
in ks
Ġestabl ished
Ġn ational
Ġmod ern
c he
l ine
1 4
Ġ es
Ġp at
ĠW est
ĠAl l
Ġn amed
ĠC al
5 0
A n
ĠB ar
ward s
Ġsh ort
Ġb us
ĠDe cember
g es
Ġm ilitary
Ġd ay
ĠB y
ĠThe se
um ent
ist ory
olog ical
v ision
in o
ir c
ĠAust ral
as ter
Ġc r
ag n
ĠĠ ĠĠ
Ġg reat
Ġloc al
Ġpubl ished
th s
ograph y
ĠAp ril
e k
ĠÐ Ł
Ġhe l
Ð°Ð ´
un g
ĠS w
19 8
Ġadd ition
ut ed
Ġg l
h od
ĠC ity
Ġc amp
Ġf em
ac es
ĠÐ Ŀ
Ġb as
Ġv is
ra y
ur s
ĠNov ember
ĠB ro
Ġrep resent
Ġv ot
in ess
a ugh
Ġcol le
Ġan other
y d
Ġcontro l
Ð» Ð¸
Ġ el
Ġh ig
ĠS chool
ĠP res
Ð¸Ð ¼
Ġbe g
c ing
Ġk ill
Ġs k
on es
Ġl ess
ĠE x
er t
em pt
Ġn orth
Ġ &
ĠÐ Ĵ
st it
b um
ure d
Ġcl aim
Ġa ff
Ġconsid ered
Ð¾ Ñĩ
ĠSt ate
a ul
Ġt ri
h am
Ð¾Ð º
1 3
Ġsim ilar
Ð° Ñı
Ġpartic ular
ĠF l
Ġad m
ÐµÐ ³
f ord
ĠS he
b s
e ad
Ġf ore
le ar
iv id
Ġto ok
oun cil
ĠR iver
ĠÑ į
ag ue
ĠÐ² Ñĭ
Ġle vel
Ġle ft
ip p
cc ording
Ġinclud ed
Ġl a
Ġl ate
eb ru
ĠH er
ĠA fter
Ġis s
ebru ary
t ers
ĠFran ce
' t
Ġhum an
Ġre pl
l er
Ġin f
Ð¾Ð ¶
ne y
Ġ er
Ġorig in
Ġimport ant
. ,
Ġhe ld
ĠP art
Ġcon f
Ġb and
h old
Ġl inks
Ġdo es
o o
Ġbec ome
y m
ro te
Ġar ch
in ation
Ġint rodu
Ġt it
in ing
Ġw ay
Ġph ys
Ġg iven
it her
Ġ i
ĠE l
Ġm arri
Ġ Ñı
he re
Ġl im
Ġrele ased
Ġ ident
Ġev ent
Ġf oot
ĠE ar
an ish
Ġchild ren
Ġwith out
ĠA ir
Ġpro f
ÐµÐ ¹
al f
Ġe p
Ġdire ct
Ġ ide
ĠA ss
Ġst ates
ad em
Ġdevelop ment
l ing
ĠAn d
Ġs ol
19 7
l ess
Ġorig inal
C h
Ġne ed
Ġf ield
Ġsing le
pl oy
is on
Ġch ang
Ġn ov
ĠF ebruary
Ġ1 1
Ġs ong
Ġplay er
Ġsu g
le t
ir on
Ġf ew
O n
ru ction
v al
ition s
ivid ual
ĠS ec
s ide
ĠEurope an
p s
Ġs outh
ore d
her n
Ġs omet
Ġpr im
Ġrel ig
Ġp ract
Ġa ver
Ġbo ok
l ic
p ire
ab ly
Ġse ason
Ġv ol
Ġc aus
rid ge
Ã ¡
Ġare as
ĠÐ¾ ÑĤ
Ġm en
Ðº Ð°
Ġm ult
og n
pe cial
Ġvar ious
end s
ĠPh il
ict ion
ĠEng land
Ġs our
T h
2 1
n ing
Ġcom b
Ġp ost
Ġw omen
Ġal bum
Ġr ul
as tern
Ġinv ol
op s
Ġind ust
b orn
e an
er ing
Ġs on
Ġde cl
y le
S t
Ġro le
ĠM c
form ation
Ġl ist
c hes
Ġt urn
Ġf ive
a pe
ff ic
Ġv iew
Ġ2 5
ap p
mer ican
op e
inn ing
Ġk ing
Ġg en
al k
Ġw on
it es
w ork
ĠD av
ort hern
way s
Ġbu ilt
ic ian
Ġex ist
Ġact iv
ÐµÐ ²
os p
ens us
y pe
Ġsoc ial
m ost
Ġc er
Ġto p
Ġw rote
Ġd el
Ġre al
Ġsy m
S ee
ow s
ist ic
r ican
Ġm illion
ĠCom p
Ġst ruct
Ġp osition
ot s
Ġcon d
Ġdevelop ed
ĠP ark
Ġs ix
Ġlar gest
Ġind ividual
ol ic
Ġh owever
im ate
Ġreg ion
ĠC o
Ġl ight
at t
ĠB C
Ġp ain
s elf
Ñĥ ÑĤ
Ð´ Ð°
Ġl ow
at ural
Ġ19 0
ect ed
ener al
Ġatt empt
et h
Ġin it
ib r
uc k
Ġsh ould
A merican
le x
Ġvers ion
Ġc are
ÑĢ Ð°
Ġprodu ction
Ex ternal
ĠH igh
u le
? -
v ious
Ġgro w
ent ion
ĠÐ¿ Ð¾
ra g
o on
ĠCh urch
Ġ3 0
Ġcre ated
Ġass oci
ther n
um b
Ġb re
Ġde v
Ġaver age
Ġcount ries
Ġcur rent
Ġpres ident
Ġs old
Ġar g
Ġd et
oc r
s p
om b
Ġre du
c o
Ġind epend
re g
ĠE ast
Ġc al
Ġus ually
ac y
Ġrel ations
Ġal though
Ġ201 0
19 6
ÐµÐ º
Ġper form
ĠGree k
Ġs w
i ation
Ð¾Ð» ÑĮ
d e
Ġloc ated
Ġpro per
ĠM ed
Ġt imes
ab ility
ĠÐ Ĳ
Ñı ÑĤ
ific ant
ing ton
Ġhel p
ĠUn ion
ĠL at
id ence
Ġto tal
ut er
it ive
Ġed uc
ent ial
se qu
ĠPres ident
Ġt ake
Ġsp ace
inist er
ab or
Ġc ase
ou thern
Ġ z
ĠS up
o f
Ġ1 00
Ġc ame
r ated
Ġm ar
cent ury
Ġl iving
Ð¾Ð³ Ð¾
b an
ain ed
Ġle t
Ġbe h
ber t
ĠH ol
Ġh aving
ĠB er
ĠM on
1 1
ĠAmer ica
Ġb i
Ġm ater
id s
Ġsystem s
Ġd est
et ic
Ġappe ar
av y
Ġwor ks
Ġman ag
Ġ18 9
ĠChrist ian
o ad
Ġspec ies
3 0
Ġre se
ak en
Ġ2 4
Ġn et
Ð° Ñİ
i ol
Ġwrit ten
Ġme an
Ġspe cial
ĠCol le
g en
ĠP al
c hed
an a
ac ks
I I
ie f
ĠJ ew
ĠH en
ĠC or
Ġm ust
ific ation
Ġrece ived
ĠIn ternational
Ġoffic ial
Ðµ Ñģ
Ġmet hod
Ġs ent
at ures
ines e
m it
Ð¸ÑĤ ÑĮ
Ġsug gest
Ġt est
Ġsign ificant
am a
w h
e um
ov iet
Ġprodu ced
Ġh ow
ĠH ouse
Ġserv ice
idd le
s y
Ġgroup s
ĠL a
Ġth ird
ĠGerman y
v ille
l in
Ġb est
Ġ Ñħ
ĠInd ian
Ġplay ed
Ġpro ject
er y
Ġm ass
Ġfun ction
um p
ĠÐ Ķ
Ġse par
ĠP e
Ġme as
ĠP ort
Ġpro ble
ĠR ober
ĠS oc
Ġan c
Ġb ody
Ġc irc
Ġne ver
Ġfor ces
ar a
oy al
ra b
Ġcomp any
ĠL ou
Ġan im
ud e
ÐµÐ ±
us ed
A s
ĠN or
Ġs um
u el
w are
Ġprodu ct
Ġt reat
Ġhouse hold
Ġre n
an ces
ri an
ĠP er
Ġthe ory
ĠP ress
Ġdescrib ed
ra p
ut es
ĠÐº Ð°Ðº
at ors
ĠCh ina
U n
er gy
Ġj o
and er
ĠR eg
ĠS ch
m a
Ġt w
Ġtele vision
us h
Ġk e
ar ian
Ð¸ Ðµ
ĠR es
Ġf urther
ist or
Ġg ames
Ġf ather
Ġ200 0
Ġan al
ĠG l
Ġother s
ĠO ne
Ġeng ine
Ġstr ong
ÑĤÐ¾ ÑĢ
ĠÑģ ÑĤ
Ġmater ial
ĠGeor ge
ĠJ ames
ĠR ich
our n
ĠT r
Ġg ood
Ġd er
Ġfil ms
Ġob s
ĠN e
u f
ĠAf rican
ĠÐ ¡
ra in
Ġob ject
i ber
ĠS ome
Ġm ot
u k
Ġd ied
end ing
ĠA ct
ĠD em
ar ies
ĠW hen
r ant
n a
Ġfre qu
pl es
over ed
Ġe ither
Ġp ress
al t
4 0
Ġstud y
Ġbus iness
ÐµÐ ·
Ġst ory
ĠÐ± Ñĭ
ĠS y
ĠS oviet
ide o
Wh at
ĠEm pire
ĠG reat
for man
ron t
Ġfoot ball
Ġsy n
ĠChar les
ĠB r
Ġinter est
A l
ĠT e
Ð°Ð ±
ĠKing dom
Ġs ize
m ing
Ġav ail
ĠCh inese
ight s
Ġatt ack
ĠA c
ra w
Ñĥ Ð´
Ġsh ip
Ġm er
Ġh ost
Ġ18 8
as ing
Ġpre vious
b it
Ġ [
il os
b or
a ut
re am
Ġcontin ued
oun g
Ġd ata
re et
Ġear li
Ġcon c
ĠA g
Ġc ivil
ĠB o
Ġrec ogn
ĠÐ² Ñģ
Ġcomp et
get her
ĠItal ian
Ġto gether
Ġf ri
f ace
ĠG od
Ġf ail
inc ip
c raft
Ġc ell
Ð¸Ð ´
re st
ĠQ u
Ġf ull
Ġp ri
ru g
port s
Ġh alf
om p
Ġf ree
Ġt ro
oun ced
k n
Ġb ir
Ġlit er
Ġm ember
at ter
Ġf ac
Ġbl ack
Ðµ ÑĪ
Ġin ternational
Ġpr iv
om s
ĠS an
ĠPart y
Ġde b
Ġhim self
a ff
ĠC ath
Ġd i
pecial ly
Ġne xt
ĠÐ¾ Ð½
il ies
o ff
g in
Ġocc ur
Ġter rit
Ġinc ome
ĠSp anish
Ð¸Ð ¹
Ġr ather
Ġs ide
he l
Ġsomet imes
Ġw id
om m
if orn
Ġnov el
Ġsu per
Ġd ays
ĠC ouncil
Ġ18 6
Ġpol ic
Ġm aking
le ment
b o
Ġpart y
ic o
her s
ĠAr my
im ent
Ġfe ature
ĠV al
v iron
Ġ200 8
ap er
ress ion
Ġ18 7
if y
ĠÐ ľ
ĠS er
Ġpl an
an c
ra el
ĠM or
m p
ot e
Ġf ind
ac hed
ĠM ich
Ġd eter
h ib
ain t
Ġbro ad
ĠJapan ese
Ġkn ow
e f
Ġag re
ĠG eneral
Ġse en
Ġgener ally
pl ay
Ġ200 7
iforn ia
ens ive
Ġtrans l
f ic
Ġposs ible
Ġbec om
en ced
a el
B C
ĠRober t
Ġt ype
Ġavail able
Ġdef e
Ġ201 2
Ġle ast
ĠP aul
ar n
ĠB el
Ġf inal
ĠHen ry
Ġcap ital
Ðº Ñĥ
Ġh old
Ġs qu
Ġ2 1
Ġen c
Ġobs erv
ate g
Ġestabl ish
Ġform ed
Ġinv est
w rit
un ic
i que
ĠD uring
ad es
our s
Ġst ar
em ents
Ġch ange
Ġ( "
ri a
b e
Ġem ploy
Ġs ch
Ġp ot
ĠRe v
id ing
Ġof fer
Ġc he
Ġmod el
as k
um e
Ġprof ess
ut ions
Ġpre d
Ġimp ro
Ġtem per
im ately
Ġb ase
Ġper forman
Ġc oll
ibr ary
ĠÑĤ Ð°Ðº
ĠF re
Ġstand ard
Ã ³
Ġ201 1
ap t
Ã Ń
m en
ul ated
ĠLou is
ĠIs land
Ġg et
Ġeconom ic
ĠÐ ļ
Ġfor ce
av es
g o
Ġpolit ician
ol it
Ġse e
it ect
ist er
m ar
Ġn atural
Ġ199 0
c le
c ast
p ite
ĠDav id
n ot
Ġc ost
Ġrese arch
ĠRep ublic
Ġter ms
b urg
s hip
ĠW estern
Ġf ar
ĠÐ ¢
Ġsub ject
Ġmark et
ce ed
Ð°Ð ¹
ric a
per or
ul a
ĠO ther
k y
Ġf all
ress ed
Ġph ilos
f ield
art ment
is ing
Ġac cept
Ġac ross
Ġ200 9
Ġd oc
Ġwh ite
Ġ200 6
u ation
Ġab ove
Ġ2 3
sy ch
ap s
eder al
Ġadm inist
Ġes pecially
ĠCal ifornia
in ter
Ġst yle
ĠD es
Ġg e
ĠBl ack
ĠS m
Ġ201 3
Ð¸ Ñħ
Ġpart s
ĠC our
Ġm em
Ġf ood
Ġre d
b ers
ĠI r
Ġs ay
Ġ Ã
Ġp ur
y r
Ġs ound
a ign
Ġ20 20
Ġact or
Ġacc ount
on st
ĠG overn
Ġ2 2
Ġlangu ages
Ġf av
Ġ198 0
Ð¸ Ñģ
ord er
Ġse x
Ð¾Ð ¿
ourn al
Ġro ck
ĠA ccording
e h
Ġintrodu ced
Ð°Ð ¶
Ġex ec
t t
Ġc arri
Ġcult ure
at ory
Ġb orn
ar ily
Ġconst it
ke y
Ġf und
Ð ¶
Ġele ction
ĠInd ia
Ġthrough out
Ã ¶
ĠColle ge
Ġent ire
ĠN o
ĠM et
Ġra il
Ġcer tain
ch ie
ic ro
om as
Ġin formation
ut ch
Ðº Ð¸
Ġm id
it or
ĠV ir
viron ment
Ġ197 0
wo od
ĠC ong
i ers
Ġbuild ing
Ġhig her
il es
i ke
The re
Ġe ast
Ġ201 4
Ġreg ard
ĠRuss ian
Ġd en
o e
ĠÑį ÑĤÐ¾
st and
Ġc ross
Ġcent ral
Ġfound ed
Ġcon cept
Ð¾Ð ·
Ġfollow ed
Ð¸ ÑĢ
ĠW ith
Ð¸ Ñı
Ġpo et
ic le
at ives
ĠR ec
Ġsc ient
. -
A r
Ġl ower
Ġs it
Ġw est
ĠQ ue
it er
19 4
ch an
Ġr ange
Ġme ans
ĠA lex
w est
Ġv iol
ĠSt e
Ã ¼
Ġ2 6
Ġen ergy
ĠAn g
Ġright s
o id
Ġc ities
Ġserv ed
ĠCanad a
ĠB attle
Ġne g
ro y
ag o
fer ence
2 5
et t
Ġm ag
8 0
re m
Ġgro und
one y
ĠAf rica
y ear
ĠÐ¾ Ð±
v ing
Ġpr incip
ĠIs rael
Ġ ill
r or
an ia
Ġdist rib
Ġh ard
Ġind ic
is l
Ġmov ed
19 5
ec ess
Ġc ou
Ġ2 7
er ous
Ġdeter m
it ing
ri al
Ġcont rib
Ġs ite
Ġf ig
li ament
Ġmult ip
Ġacc ess
Ġcommun ity
a ur
Ġmov ement
Ġar my
Ġla un
Ġsuccess ful
c ript
Ġits elf
ĠCath olic
Ġ200 5
ĠT ur
Ġtit le
| |
Ġc y
Ġh ous
Ġup on
ĠÐ· Ð°
Ġt aken
Ġcrit ic
li ke
Ġ201 6
ill s
Ġres pect
it ch
Ġte xt
ĠAustral ia
Ġev ents
Ġtr ade
he st
Ġg od
ough t
Ġt rib
Ġ ver
ĠM ex
Ġb ar
Ġis land
ĠR oyal
Ġinst ead
Ġwh ose
Ġm other
Ġ201 5
Ġreport ed
Ġth us
mer cial
ĠW il
Ġl ost
ÐµÐ½ ÑĮ
Ġr ate
re l
Ġcons ist
Ġcour t
Ġme et
it z
Ġcont ain
ar i
: -
ĠÐ¿ Ð¾Ð´
Ġp ut
Ġacc ording
ur ity
Ġsch ol
Ġw ent
Ġf ire
Ġcomple x
Ġde g
Ðº Ð¾
Ġli k
Ġpro b
ĠA ward
Ġal most
Ġcon n
Ð°Ð ¿
6 0
ĠM art
Ġcon du
ĠLe ague
a ren
Ġp ers
Ġcap t
um ents
r up
Ġon ce
ol s
gy pt
u x
Ġar r
Ġv ict
Ġinclud es
Ġmarri ed
Ð¸ Ñĩ
ord s
em s
Ġsing er
ÑģÑĤ Ð²
Ġim m
Ġro ad
Ġrad io
ĠH istory
ing u
Ġ2 8
âĢ Ļ
Ġc op
ell ing
Ð» Ñı
ĠÐ ŀ
ĠS l
ĠW e
ĠM al
Ñ Ħ
Ġsur v
Ġ ur
ĠB ra
Ġc hem
Ġt ax
Ġab s
a ction
Ġst e
Ġbro ther
m on
r im
ish ing
. )
Ġpro te
Ġmain tain
Ġo pt
Ġbel ow
ĠWh ite
ÑĢ ÑĥÐ
Ġco ast
Ġann ounced
Ġcomp os
uf act
Ġad op
" )
augh ter
Ġint eg
ĠRich ard
r ight
o ice
ĠT er
Ðµ Ñĩ
Ġkill ed
Ġ196 0
at ch
Ġnum bers
k i
Ġtradition al
Ġrelig ious
Ġthough t
ĠG ro
Ġfor ms
Ġcamp aign
Ġf oc
Ġk ey
Ġph ot
Ġl ive
ĠEar th
Ġapp lic
ĠÑģ Ð²
ĠÑĤ Ñĭ
ĠM ount
Ġserv ices
Ġs at
Ġst ation
Ġw ife
Ġan ti
Ġincre ased
ÐµÐ³ Ð¾
o ks
Ġhe alth
ist an
Ġcharact ers
ber g
il ities
rough t
Ġl og
c ul
ĠÑģ Ð¿
19 3
Ġmed ian
b on
Ġg ave
n ow
and s
ĠH all
Ġ201 8
ĠS en
Ġmon ths
ĠR ed
Ġcol on
ĠM ac
Ġinflu ence
Ġ5 0
Ġn uc
ash ington
Ġnet work
Ġremain ed
ĠDem ocr
ĠP at
Ñĥ Ñİ
Ġcl os
Ġun ivers
Ġst ri
Ġassoci ated
ĠM e
Ġ201 7
ĠD ist
Ð Ĵ
in i
i res
Ġappe ared
ran ch
Ġe th
ĠS im
Ġh on
ĠD ep
ens ity
ĠAr t
Ġc ast
ĠÐ¸ Ð·
Ġto ur
o res
Ð½ Ðµ
Ġ200 4
2 2
Ġ20 19
Ġdis p
Ġ â
ÐµÐ» ÑĮ
Ġsc ience
Ġre b
Ġper cent
cl us
Ġev idence
ut ure
Ġlead ing
Ġsu ff
Ġus es
ubl ican
ĠCent ral
Ġw ant
h a
ĠTh omas
Ġrelations hip
Ġep is
Ġh om
oun ter
Ġarch itect
Ġprov ided
ÑĥÐ ¼
Ġeduc ation
st on
Ġe t
ĠM inister
u ke
Ġa ud
ĠCour t
ĠT rans
ĠPar is
ĠLat in
eng th
Ġex cept
Ġn orm
ĠE gypt
Ġcomp an
Ġfam ilies
l am
Ġrecord ed
p ut
v iew
Ġab le
r ast
ĠCanad ian
Ð Ł
Ġfe atures
ot es
med i
Ġresp ons
Ġr ule
Ġallow ed
Ġm ount
ĠAl though
Ġstart ed
ers hip
Ġlit tle
Ġapp oint
Ġele ments
Ġd on
ou l
ro wn
Ġm ale
Ġp ast
Ġprov ide
Ġrequ ired
Ġrefer red
ĠAr ch
Ġdist rict
ĠBrit ain
ĠF irst
l im
Ġstruct ure
Ġun its
Ġv ideo
os es
Ġtra vel
ĠD ay
ir l
Ġoff ice
Ġval ue
ĠItal y
Ġc ases
ĠM ary
Ġword s
ĠA rab
ĠFran k
ĠU K
ĠP ri
Ġcom mercial
ĠFran c
ĠL ake
Ġc over
ĠS am
b and
Ġcl ub
Ġcl ose
Ġd am
Ġdesign ed
Ġa chie
Ġt re
Ġfem ale
ĠT ra
Ġc ensus
um n
Ġevent ually
Ġt en
E n
Ġocc up
Ġto o
ĠWh ile
o ch
Ð¸Ð ·
en ed
H istory
7 0
ĠM er
Ñĭ Ð²
ĠN et
ud d
id ents
Ġout side
Ġschool s
Ġf ight
ant ic
Ġmean ing
ĠZ e
Ġele cted
ĠSc ott
Ġg rad
ĠW ashington
Ġ2 9
Ġm ach
Ġsour ce
Ġair craft
Ñĭ Ð¹
Ġparticular ly
ĠM iss
A fter
as ion
ĠAc adem
u it
or ks
Ġindust ry
Ġc reat
ele b
Ġdire ctor
in ct
ĠI m
Ġs aw
ĠD utch
Ġqu est
kn own
vent ion
Ġfore ign
Ġso ft
Ġstud ents
Ġman ufact
ly mp
st e
or por
ĠL aw
st ant
- -
ĠS al
Ġrel ated
Ġconc ern
ĠÑĢ Ð°Ð·
ent al
Ġanc ient
Ġn orthern
ib ility
ĠIn stit
Ġreturn ed
Ġmajor ity
fic ult
Ġs elf
ix ed
Ġcomp uter
Ġ200 1
Ġd ou
if f
Ġam ount
Ġy oung
Ġeff ort
ĠH istor
Ġsym b
at ively
Ð¾Ð³ Ð´Ð°
ec k
ĠM y
ĠI f
Ġperforman ce
9 0
Ġra ce
Ð½ Ð°
ĠT ex
Ġappro x
ĠL ist
Ġest im
Ġwork ing
ak er
Ġpartic ip
Ġpriv ate
Ð¾Ð² Ð¾ÑĢ
h ing
) ;
ed y
Ġconsid er
Ġch urch
Ġcare er
Ġn ames
Ġg ra
ut h
ĠVir gin
ĠII I
i j
ys is
Ġ /
ow ers
re y
Ġact ress
d en
ÑģÑĤ ÑĮ
ĠG reen
) :
Ġdif ficult
il m
ĠIn ter
Ġtrans port
er o
re ater
Ġm ight
Ġst ated
e ction
Ġb rought
as c
ĠAustral ian
ĠMus eum
Ġmat hem
qu es
r ate
Ġbelie ved
av al
Ġs il
Ġd omin
Ġold er
on ic
Ġincre asing
ĠT o
Ġal ways
N A
Ġa way
ĠK h
Ġm iss
at al
Ġinst it
Ġl oss
Ġs outhern
Ġex am
Ġp ay
ĠM any
Ġme chan
Ð½Ñĭ Ð¹
h ood
re me
el t
ĠSw ed
g round
Ġsub sequ
ens ion
ĠÐ¶ ÐµÐ½
Ġ18 5
Ġconst ruction
b ased
Ġ200 2
Ġcaus ed
Ġb attle
Ġ4 0
Ġse qu
Ġc ause
ic les
p art
Ġsur face
Ġ =
Ġa ction
all s
Ġm agn
Ġy our
Ġr ank
ag ed
Ġj ud
Ġv ill
o or
Ñĥ Ñĩ
ish op
ist ance
il i
Ġrele ase
Ġ200 3
, "
r ig
Ġ âĢ
ĠP eter
ĠÐ ĺ
Ġread ing
it a
Ġbir th
he ad
el ves
le g
Ġincre ase
D e
ĠC ap
Ġ6 5
Ġem b
Ġbeg inning
ĠG old
Ð°Ð» ÑĮ
se e
Ġp sych
Ġreg ular
Ġd ate
m in
Ġset t
ul f
all ed
ĠL ibrary
Ġr is
2 4
ĠO ld
ol f
Ġopen ed
Ġe ight
ĠSoc iety
t ime
Ġe mer
Ġv ir
F or
od es
Ñĥ ÑĪ
ĠCent er
u ff
ĠV ol
ĠÐ²Ñģ Ðµ
Ġl ay
Ġc ut
ist ics
Ġdis e
yd ro
Ġl ab
Ġd om
k m
Ġhig hest
Ġwrit ing
Ġ ess
ĠB ay
ĠD on
Ġtyp ically
Ġcomm and
Ġindepend ent
Ġac qu
Ġen vironment
en a
ult ure
ĠG rand
Ġwrit er
ĠJ ose
he ast
Ġpoint s
Ġchang es
ĠSt ud
air s
Ġearli er
ĠCong ress
amp ions
ĠAss oci
ur ies
Ġpl ant
Ġt ar
ĠR ome
Ġbo oks
ĠAcadem y
Ġrepl aced
c ies
Ġlar ger
Ġl ines
i os
Ġa ward
it ude
ly ing
ĠP ers
Ġal tern
it te
ĠIr ish
Ġc eleb
ĠH am
2 3
Ġe ver
Ġrem ov
Ġorigin ally
Ġspec ific
Ġf uture
Ġd yn
Ġplay ers
Ġinst r
l or
Ġg old
r as
Ġcent er
Ġpolic y
ĠJew ish
Ġm or
ĠO lymp
Ġadd ed
Ġse ven
an ks
ĠDist rict
i ences
ol k
Ġb ound
ig ital
Ð°Ñİ ÑĤ
Ġdest roy
pe cted
in ary
Ġs em
Ġlead er
op er
a rent
Ġtyp es
ĠS un
led ge
Ġgrow th
Ġcompan ies
fl ict
ĠB ut
ms elves
ĠMich ael
Ġpl aces
ĠP ac
ĠD an
ĠSt reet
Ä ģ
Ġdoc ument
Ġpract ice
ut ive
Ġto day
Ġp en
od ern
Ġ18 4
Ð ¡
Ġc and
ĠM ost
Ġthe mselves
Ġprim ary
it iz
Ġinter p
read y
ĠComp any
Ġd aughter
Ġc ode
an ic
ĠM ad
Ġlim ited
Ġw ind
ĠCon t
ĠÑģ Ð»
t ies
v in
ĠB ur
por ary
Ġp ie
Ġ199 9
Ð¸ Ð¸
Ġcom e
Ġmed ia
or ial
Ġset tle
ÐµÑĪ ÑĮ
Ġhousehold s
Ġv ia
ĠM ont
ign ed
ĠC ons
Ġas k
Ġspe ed
ell ed
Ġse a
an cial
ach ing
Ġh or
Ġleg al
Ġb ene
ĠSp ain
Ġd ensity
Ġf ront
Ġperform ed
Ġdef in
ĠF rom
p ro
Ġperson al
is ions
S A
Ġeffect s
h ab
Ġn ar
Ġpur p
Ġc lear
Ð¸ ÑĨ
ĠM at
ĠA pp
I t
Ġn ature
Ġshow s
if t
Ġlong er
Ġinvol ved
on se
end er
Ġne igh
iz ing
oph y
s pe
am er
Ġl ook
writ er
Ġr iver
l ied
ris on
re land
ĠÐ¾ Ð´
ab les
Ġn ecess
Th is
ĠComm un
ob al
ro ad
res p
Ġcommon ly
ĠIt s
um an
ot ed
ÑĥÐ ¿
Ġdef ined
Ġer a
an ced
est ival
Ġpl ann
u ous
un k
Ġe as
Ġwe ek
ĠS erv
ĠSy stem
ĠRep ublican
ĠC amb
Ġl ack
our ces
Ġsc reen
Ġremain s
Ġeconom y
ĠÐ¼ ÑĥÐ¶
un t
2 7
O ther
Ġst age
Ġbre ak
Ð° ÑĪ
ĠV ict
Ġprop osed
ĠÐ¿ ÐµÑĢ
Ġ ens
Ġpre c
Ġsour ces
Ġb ur
Ġprodu ce
ĠSt ar
k a
ĠS aint
at re
Ð°Ð» Ð¸
Ġbet ter
Ġpr int
Ġtro ops
ÐµÐ½ Ñı
ĠK ore
Ġo x
Ġal ready
Ġrequ ire
ar ing
oo ks
Ġwhe ther
Ġrev iew
p ir
Ġent er
Ġac adem
Ð½ Ð¸Ðº
Ð Ŀ
w ell
Ġo p
Ġcon ver
Ġl o
Ġor d
n ic
ip l
as ons
Ġindividual s
Ġfem ales
Ġ ÑĪ
Ġn ight
Ġproble m
Ġwh om
Ġmin or
o z
Ġke ep
Ġwid ely
Ġg ive
Ġlaw s
ĠK e
ĠC he
ve y
Ġmost ly
Ñħ Ð¾Ð´
y a
ĠF in
Ġan t
ax im
C l
Ġmus ical
Ġar m
ĠT own
Ġcond itions
Ġhistor ical
m ark
ĠAs ia
ĠInstit ute
Ġsqu are
Ġa st
r ich
Ġl ength
Ġf a
Ġ ...
ĠRuss ia
Ġqu ant
Ġ199 8
op p
A ccording
Ġg as
D uring
2 6
2 8
ol a
m illion
Ġn ation
ĠAng el
us e
Ġbl ood
Ġdirect ly
est s
Ġb all
Ġw estern
se c
ell ow
Ġpre vent
Ġdisc uss
Ġcon flict
Ð¾Ð»ÑĮ ÐºÐ¾
Ġresult s
om er
ĠB est
ĠI reland
c ks
Ġfam ous
Ġlik ely
ad a
le cted
Ġ195 0
Ġsepar ate
ĠAt l
Ġto wards
az ine
Ġcre ate
19 0
ĠÐ¿ Ð¾Ð»
ir it
ian ce
ĠSm ith
ult ural
iv ity
Ġra p
A t
i ents
Ġleg isl
g ing
Ġse at
ĠÑģ Ðº
Ġcont ains
Ġth reat
Ġsupport ed
ĠF ore
un s
ĠR ad
ĠR out
Ġphys ical
ĠM iddle
H e
Ġo il
ĠC ast
b l
ch ange
Ġ199 6
Ġwork ed
Ġpress ure
g ely
Ġtechn ology
ĠPol ish
2 9
ÐµÐ ¿
it ar
ro l
Ð¸ ÑĪ
Ġre ason
Ġmeas ure
ĠÐ´ Ð²
Ġr at
Ġrec ent
in et
ĠEd ward
ast y
ĠM ark
Ġcommun ic
ĠVirgin ia
Ġcomple ted
Ñī Ðµ
Ġj ournal
Ġterrit ory
ro s
ĠSe a
Ġnum erous
Ġmultip le
Ġd ram
ĠAssoci ation
per ial
g ian
is ation
id a
Ġre ached
Ġcomple te
Ġmy th
ĠS ince
Ġsoc iety
ÑĢÑĥÐ ³
ot a
Ġan g
on a
Ġwe ap
resp ond
ĠC ivil
Ġresp onse
Ġde al
Ð ŀ
it ted
Ġstat us
Ġsp read
Ġvar i
Ġlet ter
ĠV er
Ġm akes
Ġexp and
Å į
Ð¾ ÑĪ
ĠN orthern
Ġc ust
al ed
w here
ry ing
ĠJ ul
Ġchang ed
A d
Ġproble ms
Ġ3 1
itte e
Ã ¨
i en
an o
e ch
Ð¾ Ðµ
Ġso on
ĠM a
Ġp os
Ġelect ron
r ick
ĠR oad
he t
in ent
Ġwrit ers
Ġf le
Ð¾ ÑģÑĤ
ell ig
ar c
Ġ18 3
u ge
ĠE astern
Ġ199 7
w ide
Ġcand id
Ġm oney
ĠÐ³ Ð¾Ð²Ð¾ÑĢ
m et
r d
p r
Ġide a
ĠP et
Ġclaim ed
ĠPac ific
Ġpl aced
Ġimp lement
ĠB en
ĠJose ph
Ġlar gely
Ġsur round
ip s
Ġl ink
ĠO x
Ġlevel s
it ation
Ġth r
Ġvar iety
Ġpe ace
Ġcol or
n d
e ff
ĠEm peror
Ñĥ ÑĢ
Ġvot e
Ġun it
ĠCar ol
ĠH ill
ĠSec ond
Ġstud ies
ed ic
ĠIs lam
ĠA re
Ġtemper ature
ĠVict or
Ġw oman
it t
ĠRev olution
Ġcount ies
Ġc ateg
ĠJ ud
ĠY ear
at o
p ly
Ġcult ural
Ġsoft ware
pp ed
Ġim medi
Ġapprox imately
Ġmov e
Ġ20 21
Ġn omin
Ġs us
oc al
Ġappe ars
Ġsmall er
ĠM ag
t ion
b our
ĠÑĤ ÑĢ
Ġcolle ction
ĠTex as
Ġ199 2
ĠSup er
iz ations
Ġun iversity
Ġfin ancial
Ð» Ð¾
Ġdiv ided
Ġjo ined
Ġ ÑĤÐ¾
ĠPort ug
ĠMex ico
ĠÐ¼ ÐµÐ½Ñı
Ġes c
Ġm ur
Ġbeh av
Ġele ment
Ð» Ð°
ast ic
u z
ĠT V
stand ing
Ġ199 4
ĠR ock
ĠG al
Ġfor ced
tern et
ict ed
Ġg reater
Ġaddition al
Ġen ough
Ġproduct s
Ġc itiz
Ġpri or
ic ago
Ġtrans fer
Ġdet ail
Ġ âĢĶ
ĠÐº ÑĢ
n ed
en es
Ġdis play
ar ter
Ġmarri age
P e
Ġqu ick
Ġc red
ro ll
ĠM ass
Ġh us
olog ist
Ġsign ed
b ack
ex t
a res
Ġ199 5
r us
Ġiss ues
Ġin j
Ġbroad cast
Ġm ention
os ing
stit ution
ĠG ra
iet n
is es
Ġsec ret
n el
Ġoper ations
con t
Ġdis s
ĠR om
Ġre form
Ġloc ation
ect s
ĠPro t
ac hes
r ative
Ġnear ly
ĠD iv
ĠPr ime
Ġact ive
du c
Ġwho le
Ġd ial
ĠFor ce
i as
ian a
id er
Ġdec ided
Ġv eh
ĠO ff
ĠSc ot
Ð³ Ð¾
Ġc ard
w in
Ġprodu cer
Ġcor respond
ian t
ste in
Ġsh own
ĠMart in
Ġ ||
ĠJ er
Ġro und
C A
Ġfoc us
Ġpass ed
unic ip
Ġfri end
ĠM in
Ġdisc overed
ĠB as
Ġestim ated
ann el
Ġob tain
Ġcent re
Ġiss ue
ĠF er
Ġs al
Ġappoint ed
ear ch
Ġf ederal
Ġbecom es
ant a
Ġadop ted
erv e
! -
Ġfeature d
ĠD o
Ġh ydro
ĠDep artment
on n
Ġp ath
Ġb order
Ġth ink
am s
Ġl ived
Ð½ Ð¾Ð¹
u a
ĠC amp
ampions hip
Ñģ Ð»Ð¸
Ġproper ty
Ġra ces
Ġm ission
Ġh it
ĠM il
Ġl atter
Ġcon cent
Ġcan not
ĠE v
ĠN avy
Ð°ÐµÑĤ ÑģÑı
ĠB ook
Ġo ur
Ġb ig
ect or
Ġbo ard
it ors
Ġt aking
ĠPr ince
Ġn ob
Ġreg ions
y e
Ġbuild ings
ĠK n
Ġcompos er
Ġl ove
ar ly
ĠD en
Ġk ind
Ġre ve
a ud
Ġhigh ly
Ġpol ice
Ġdire cted
Ġt akes
ent h
ĠQue en
| -
Ġg rant
Ġbas is
G e
Ðµ ÑģÑĤ
ĠR ob
o ke
Ġbeh ind
Ġw in
Ġh yp
ess ion
ĠÐ¿ Ð¾Ñģ
ĠIn t
Ġb ank
Ġw ide
w ar
Ð ľ
Ġcons um
Ġprov ides
Ġe astern
emb ly
ĠĠĠĠ ĠĠĠĠ
Ġnuc lear
ollow ing
ĠA ut
Ġpr ison
ĠAn t
Ġp ark
ĠCar l
c el
Ġpo or
ĠÑ Ħ
Ġ199 1
Ġcomp ut
Ġprofess ional
ul ations
Ġ ult
Ġs af
ĠB ill
Ġschol ars
ĠL eg
Ġprogram s
ir m
O S
on ents
ĠÑĤ ÐµÐ±
Ġdem onst
Ñĥ Ñģ
Ġgu itar
z a
ĠL iber
st ate
Ġtr ue
olit an
Ġhus band
ell s
Ġcarri ed
Ġw ood
Ġed ition
Ġend ed
Ð Ĳ
ĠPar liament
b re
Ð°Ð¼ Ð¸
Ġd raw
ĠCh icago
Ġart ists
Ġp aper
Ġhe av
ĠD r
ĠW ind
ec ause
ĠL and
Ġg rand
ĠC a
Ġdist inct
Ġcontro ll
on om
z il
ĠDemocr atic
Ġc ounter
ill a
und red
Ġse ction
Ġst ep
Ġh ar
Ġtra ining
ĠÐ ¯
Ġnot ed
ÐµÐ¼ Ñĥ
Ġcommun ities
Ã ¤
Ġdise ase
Ġsum mer
Ġcont ract
Ġm icro
bo ard
Ġcent uries
Ġfun ctions
ĠAn n
al le
Ġmet al
ĠRout e
ak ers
Ġd one
ĠMus lim
ad o
ĠE r
Ġb omb
em porary
Ġrul es
Ġ( )
ĠD uke
Ġ199 3
Ġprim arily
ou d
ĠS ir
over y
b ed
Ġh ol
Ġepis ode
Ġthere fore
ĠGovern ment
h ol
Ġadd ress
ĠS um
Ġth ous
ĠSec ret
Ġquest ion
Ġag ric
Wh y
g ar
Ġs ens
op her
orpor ated
Ġmain ly
Ġg r
ĠT om
ĠV ietn
al and
ĠO l
ol ved
Ġprevious ly
Ġliter ature
b ury
wh ich
Ġde ad
ĠD is
ĠL ord
ĠF ort
y al
Ġconstit ution
Ġanal ysis
N ew
! !
Ġh ot
ĠTh at
ĠOx ford
ce an
Ġmon th
Ġ ir
ĠM ore
ĠVal ley
ĠS ur
Ġpot ential
ĠJ ust
y th
Ġ Â
Ġwe bs
s w
if orm
ĠD el
P h
ĠS outhern
Ġf if
ri ef
Ġpart ies
3 5
Ġplay ing
ĠCol umb
ĠT or
Ð¾Ð¼ Ñĥ
Ġ6 0
Ġm iddle
Ġteam s
ri ed
il s
Ġ +
F urther
y ing
Ġex c
Ġ198 9
Ġst ories
Ġinvest ig
is ms
ed s
Ġpre m
am m
ent ed
Ġsong s
Ġmem ory
w ith
ĠJ es
Ð¸ÑĤ Ðµ
ou ra
ĠComm ission
Ġra re
Ġresult ing
Ð°Ð ³
est ic
osp ital
h i
ĠR ail
cl es
ĠR o
Ð°Ð» Ð°
Ġelect ric
ur t
ĠB udd
ĠAlex ander
ib ly
Ġprob ably
t ra
Ġd rug
Ġann ual
Ġs ays
Ġch ief
Ġacadem ic
Ġfav or
Ġbo x
ĠP enn
Ġhe avy
yl v
P ro
Ġcl imate
Ġship s
ÐµÐ ¶
Ġmethod s
Ġs ense
Ġre pe
ig en
Ġdistrib ution
oy s
Ġcomp ared
ĠS ol
ĠMus ic
8 6
ĠÐ §
ill ed
Ġrap id
Ġrepresent ed
ren g
Ġsc ript
f ect
ĠT wo
Ġ18 0
Ġsuggest ed
a ult
Ð¸Ð½ Ð°
Ġc ouncil
ĠCl ass
pt ion
Ġexper ience
Ġindust rial
Ġsu c
Ġpat tern
Ġbecom ing
og rap
Ġorgan ization
ĠJ ean
ÑģÑĤ ÑĢ
Ġs pl
ĠL os
ĠAs ian
ĠÐ» Ñİ
ie val
hen s
Ġexper iment
Ġ193 0
m ond
Ġt able
Ġ8 0
Ġp il
Ġdeath s
ĠD ou
Ð ļ
al a
ru cted
Ġcont rast
Ġele ctions
Ġnew sp
est ed
Ġrelig ion
ell a
Ġmed ical
Ġindepend ence
ÐµÐ½ ÑĤ
ĠH aw
Ġrel atively
Ġm ole
Ġ ri
Ġinit ial
ĠGro up
ĠPol and
Ġp urch
Ġ :
9 9
az z
Ġfail ed
7 5
ing er
m ore
Ġsh ot
on ent
Ġint ended
ĠOr der
ain e
Ġneed ed
Ġappro ach
Ġmathem at
Ġdec ision
Ġtreat ment
ÑĪ Ðµ
m ission
t a
Ġb ring
Ġ194 0
Ġm ales
Pe ople
W hen
ĠU N
Ġass um
and a
Ġex hib
ĠW ood
Ġdeg ree
ĠH ung
ĠDe f
ĠUn der
Ġimp act
Ġaut om
ĠJew s
Ġcell s
Ġinit ially
Ġbene f
Ġm ess
Ġauthor ity
c ol
Ġrun ning
Ġ4 5
Ġactiv ity
on ia
Ġcontro vers
N otes
Ġad j
Ġtra ck
Ġh ours
ĠN ations
i ated
ed om
rop olitan
Ġris k
in em
Ġde ep
ĠA D
os is
Ġf arm
Ġfrequ ently
ound s
ul s
ĠN A
ĠÐ ł
Ġy et
im al
r ical
Ġfor t
Ġim age
Ġl if
Ġfri ends
Ġsuc ceed
Ġur ban
ĠH el
ĠK ar
Ġv on
Ġanim als
ĠÐ ĳ
ree k
Ġart ist
u ing
Ġar ran
erv ation
Ġon line
ĠM el
c her
Ġthe ore
Ġknow ledge
ĠIs lands
at ers
ĠP ublic
Ġro yal
Ġear th
ĠM o
or ph
Ġb r
Ġscient ific
Ġsec urity
ĠL uc
v a
ans ion
ffic ient
Ġfore st
Ġf iction
us ion
Ġcon ne
end ar
ĠZe aland
g or
Ġac id
ous ly
ĠS pe
ĠC up
Ġcl osed
l ight
in ated
Ġg irl
Ġli ber
Ġdecl ared
ĠSc ience
Ð½ Ð¾Ð³Ð¾
ipl om
9 5
ĠM ill
ed d
Ġcomp osed
an cy
Ġw inn
Ġcon qu
Ġchem ical
ÑĥÐ ±
et te
ĠO per
or ation
Ġactiv ities
ans as
Ġredu ced
ĠN az
ĠCamb ridge
ĠCon f
Ġsold iers
Ġto ld
Ġsh are
Ġlaun ched
Ġfour th
Ġcitiz ens
Ġsim ple
Ġoper ating
ĠÐ¶ Ðµ
Ġcon v
e en
Ġstart ing
Ġinter view
8 5
ĠM ur
Ġmur der
Ġm om
ab eth
Ġsim ply
Ġab ility
Ġremain ing
o is
Ð¸Ð» Ð¸
ĠP an
Ġcomm ission
Ġcour se
mit ted
Ġ198 8
Ġ198 6
Ġsex ual
ĠH a
ĠL ife
B y
Ġdec re
cept ion
Ġwant ed
Ġin hab
n y
Ġ Î
ct r
an i
Ġbelie f
S ome
Ġpres ence
Ġfootball er
ĠÐ± ÑĥÐ´
Ġro t
Ġ ice
Ġc at
Ġst reng
ĠW al
Ġj ob
ĠF ilm
ub e
Ġst ations
Ġf ace
Ġlead ers
at ur
Ġre ign
ĠH ow
Ġc ry
Ð Ķ
ob ile
Ġoffer ed
Ġdire ction
ĠPe ople
Ġdist ance
Ġdem and
ac c
Ġmag azine
ĠGeor g
ist ed
Ġext ended
Ġaccept ed
Ġask ed
Ġp un
Ġconst ant
Ġspe ech
ĠÐ¼ Ð½Ðµ
D P
Ġagre ed
Ġr ise
ed ia
Ġth ings
4 5
od ies
Ġpl ants
Ġhe art
Ġdes pite
Ġmat ch
g ent
Ġbl ock
Ġcons ists
Ġmod els
Ġfig ure
Ġh y
Ġcom ment
ĠBro wn
Ġclass ical
Ġapp lied
Ġmach ine
ograph ic
clud ing
Ġequ al
ĠB or
r ong
Ġal one
iz es
Ġrest rict
Ġobject s
Ġsymb ol
Ġrespons ible
u an
ĠI ll
ph as
Ġturn ed
Ġg raph
Ġrefer ence
Ġquick ly
Ġch all
ĠS il
Ġident ified
ĠP o
e es
ĠP re
Ġhistor ian
ĠAngel es
Ġn ative
Ġeth nic
ul ly
ĠB u
ĠB ern
S c
th ing
ĠG o
ĠBra zil
S h
ĠJ ac
Ġwebs ite
g ram
Ġ198 4
Ġart icle
6 5
Ġ19 20
Ġdiv ision
le ction
Ġ198 7
Ġcol lect
Ġs ports
ĠT reat
s k
ot ic
Ð ķ
Ġcre ation
Ġrecord s
Ġdefe ated
ĠT imes
Ġle arn
ĠAn gl
Ġsl ow
ĠTe chn
h ouse
Â °
Ġsub s
w an
ĠÐĶ Ð°
ĠN ap
Ġanc est
ĠM em
ĠHigh way
Ġ x
ri e
4 7
d a
o ir
ĠP ope
Ġs en
Ġmanag ement
v ement
Ġre ject
Ġtar get
Ġcurrent ly
Ġast ron
ress ive
ĠÐº Ð¾
ĠFl or
Ġext ra
ĠN ob
Ġact ually
Ġm is
ur b
Ġappear ance
Ġcont act
3 3
Ġ ut
Ġ198 5
ĠT ele
ĠW ars
ĠO tt
Ġinflu enced
ĠPri ze
ĠAmerican s
Ġp al
ĠT re
Ġarg ued
Ġ197 9
" ),
P l
ad y
Ġmat ter
i ques
In d
hes is
Ġl abor
Ġp owers
Ñĥ Ð»
re ct
ĠScott ish
Ġst ars
Ġclaim s
ĠÐĿ Ñĥ
Ġprot ect
Ġvict ory
er ia
Ġ196 8
Ġh undred
ĠC ensus
ĠI ran
duc ation
ĠÐµ Ð³Ð¾
Ġreg ional
Ġm axim
her lands
Ġadminist ration
Ġam b
ver t
ip ment
Ġpresent ed
ĠAn other
Ġd im
Ġlet ters
B A
Ġoccur red
Ġvers ions
Ġder ived
Ġ3 5
it tle
Ġfl ag
Ġsign al
Ð½ Ñı
ĠN ative
ad d
Ðº Ðµ
ylv ania
Ġresult ed
Ġdou ble
Ġproper ties
S C
Ġro ute
ĠAre a
6 4
Ġcomp ar
ĠServ ice
p ired
Ġl ic
Ġgl obal
Ġhous ing
ĠAn ton
ist ry
Ġ197 2
Ġas pect
ellig ence
Ġatt rib
Ġ198 3
aren ts
ĠS qu
Ġ198 2
Ġres idents
Ġequ ival
Ġpresident ial
Ġallow s
Ġb rief
art ers
Ġrespect ively
Ġgo ing
Ġm ut
Ġval ues
Ġqu ality
ĠSt an
Ġserv e
Ġoper ation
Ġagre ement
Ġsp irit
Ġpos itive
Ġm inister
os a
Ġcomb ined
Ġs ac
ĠThe ir
Ġd u
Ġnorm al
k en
b ur
ĠB al
Ġis lands
og ue
ĠD i
ĠL ong
ac ing
ĠLe e
isc o
ĠAir port
ĠJohn son
Ġrun s
ĠC ro
u er
Ġle ague
ĠIn c
Ġre tain
Ġ197 6
od ox
y er
os c
ers ey
Ġfl u
ĠA v
Ġtown s
Ġe c
Ġfin ally
Ġ #
augh t
Ġd edic
ĠN ot
ĠS o
B M
ĠComm on
Ġp oll
ail y
th ur
ĠW all
d is
Ġfl ow
ĠÐ Ĺ
Ġform al
Ġcap ac
ĠR el
Ġcrit ical
ĠSoc ial
ĠW ales
ort un
ĠC ross
ĠÑģ Ð¼
Ġearli est
Ġopen ing
Ġaward ed
Ġb or
for ce
os en
ĠPhil ip
Ġsc ene
ĠÑį ÑĤ
Ġb urn
Ġcond ition
Ġcontin ue
ap ers
un ction
Ġremov ed
ag ing
Ġm ig
Ġplay s
Ġnew s
b ra
ĠScot land
Ġhelp ed
H ow
Ġw ays
E arly
ĠÐ £
Ġ194 5
Ġim pl
ĠT ime
Ġex pected
m as
ren ce
S p
ĠB oth
ĠT ri
Ġg iving
Ġ197 5
A C
l a
Ġin n
Ġ197 4
S T
Ġexp ansion
Ġnecess ary
ir ing
ven ue
Ġw ear
Ð½Ñĭ Ðµ
% )
ĠT im
ĠP en
Ġwe ight
ag on
Ð½ Ð°Ñı
t ar
Ġp p
angu age
Ġm ix
Ġar rest
ĠSt ep
t own
ĠD ire
t ical
Ġmaterial s
Ġb illion
Ġbl ue
ion e
Ġg ives
ers e
ith m
e ks
Ġcal endar
Ġa im
Ġnot able
Ġmeet ing
Ġeffort s
Ġd iplom
Ġent ered
Ġcar bon
i h
ÑıÑĤ ÑĮ
en cies
Ġatt acks
" ).
ran ge
ĠE p
Ġmov ie
ird s
Å Ĥ
Ġdestroy ed
Ġv oice
ĠJ o
Ġhe re
Ð ĺ
ÑĤ Ðµ
Ġcont ent
ĠS ub
ur a
Ġp ack
iz abeth
Ġad apt
Ġking dom
ĠS k
Ð¸Ñģ ÑĮ
ĠB ank
Ġiss ued
Ġser ious
Ġide as
ĠV en
ever al
Ġd og
Ġ6 4
Ġdiffer ence
ard en
u ated
Ġpower ful
ĠNet herlands
Ġ196 9
com p
ĠOff ice
st ra
ĠRes earch
ou ri
cl aim
ĠB ul
Ġc le
ĠDiv ision
I s
Ġopp osed
Ġ197 3
I f
Ġopp osition
velop ment
ĠI V
Ġcre w
ĠÐ½ Ð¾
Ð¸ ÑģÑĤ
ĠK ent
Ġimm ig
or ter
oc ks
Ġorder ed
Ġd ro
Ġsp ent
Ġt ree
as y
is hes
Ġstud ent
Ġ198 1
Ġins ide
Ġvir t
um ber
Ġle aving
Ġcon cer
g n
Ð¸Ð² Ð°ÐµÑĤ
Ġoffic ially
w ise
ĠB ow
Ð¾ÑĤ ÑĢ
ĠK enn
Ġcom es
ian o
v is
ag an
F L
Ġc art
ĠMc C
am in
Ġprom inent
ĠO h
8 8
ĠT em
Ġ196 7
ad ium
Ġf ell
Ġmanag er
ov ers
Ġpl at
Ġsh oot
er c
Ġm unicip
3 2
Ġfl ight
Ġmed ic
Ġ ÑĥÐ¶
ak istan
Ġcomple t
igh ter
Ġinstr ument
Ð° Ñħ
Ġn ine
Ġweap ons
3 7
ig an
Ġr an
Ġwork ers
Ñĭ Ðµ
Ġ197 1
th odox
r ons
n s
ĠPl ay
Ġbas ic
ĠB ab
z ant
ĠL ater
Ġrecogn ized
ĠCon stitution
in ian
3 6
Ġa x
ĠJ im
Ġequ ipment
d s
Ġsettle ment
Ġ7 0
Ġrepl ace
ĠB BC
and on
Ġeffect ive
Ī Ĵ
Ġ196 4
Ġpr ime
acks on
out heast
ĠCl ub
Ġdefin ition
Ġem phas
Ġin du
ĠHol y
ic it
Ġhum ans
ĠÐŁ ÑĢ
it able
Ġun d
Ġallow ing
I D
Ġocc urs
Ġra cial
Ġg reen
Ġinterp ret
ĠP ost
Ġsay ing
Ġin ternal
Ġhon or
Ġstruct ures
R A
8 9
ĠC le
ĠU p
Ġmus eum
l ife
Ġne ut
Ġapplic ations
ĠÑģÐ² Ð¾
Ġwe eks
ĠA ge
Ġt end
k ins
Ġpol y
2 000
ĠN ic
clud ed
Ġimmedi ately
ĠG ar
Ġres ources
Ġm ind
Ġmon arch
ĠB et
Ġun s
Ġconn ected
ĠÐ³Ð¾Ð²Ð¾ÑĢ Ð¸ÑĤ
Ġf ast
Ð¸Ð ³
Ġup per
Ġtr ump
r ations
âĢ Ŀ
Ġf ish
oun der
Ġpl ans
Ġcer em
ĠĠ Ġ
Ġen em
Ġvill age
l av
Ġst ay
w orks
ĠL ab
E C
ĠComm ittee
in ate
Ġeff ic
Ġm ill
pp er
erv ative
Ġb al
Ġb ranch
Ġnot es
Ġp hen
Ġg ain
Ġco ach
ĠJ eff
Ġet c
Ġ197 8
Ġold est
ĠCon stant
ĠGovern or
Ġexam ples
3 4
O ne
Ġneigh bor
ĠSen ate
is her
Ġwith d
Ġfe el
Ġw ave
Ġdefe at
ut ing
r m
Ġcont emporary
Ġf er
Ġc ru
Ġst ra
c an
Ġun known
Ġchar ge
Ġbel ong
ĠEx p
e v
h aps
Ġra ised
et y
Ġmark ed
r at
ol es
Ġpolit ics
Ġs ites
Ġfollow s
ĠF estival
Ġgrow ing
Ġg rew
Ġmention ed
Ã §
Ġdist ingu
Ġown ed
ĠÐº Ð¾Ð³Ð´Ð°
im b
ĠTur k
s ylvania
ĠIn ternet
Ġdom estic
v ard
Ġref ers
Ġexist ence
Ġlist ed
9 7
Ġad ult
Ġdep art
il ed
Ġj ur
Ġcontain ing
Ġadv ant
Ġplann ed
ĠB ob
Ġp le
ĠE conom
8 7
th rop
ap ed
ues e
ĠÐ¼ Ð¾Ð¶
ĠHis p
Ġhe at
Ġbelie ve
Ġle ave
ĠJ ack
ap h
Ġf ully
' m
Ġco al
if ically
Ġper man
ĠF ederal
Ġset s
Ġp ict
Ġdyn asty
ĠFre der
k in
us es
os h
' ,
Ġcomp osition
hed ral
9 6
En glish
ris is
ÑĤ Ð¾Ð±
ur rent
Ġun iform
ĠF our
Ġh arm
ĠF ar
a ctions
Ġ196 5
Ġobserv ed
ĠCarol ina
Ġphilos ophy
Ġpre p
Ġref used
Ġlim it
Ġcolle ge
Ġprov ince
ad or
Ġland s
Ġs ister
ic on
ĠEl izabeth
Ġv ary
Ġoffic er
Ġfig ures
Ġaltern ative
Ġst op
Ġg ot
Ġpurp ose
om a
ĠD ar
ĠSp ace
ĠS ing
ĠM en
ĠL u
ĠF ound
Ġneg ot
over ty
Ġill ust
Ġorgan izations
Ġp arents
ut y
Ġatt ention
Ġsubsequ ently
ĠAl bert
Ġ3 2
Ġav oid
Ġsyn t
Ġarr ived
ĠDes pite
Ġse em
Ġre ach
ĠSwed ish
ur ches
9 4
Ġregard ed
ĠL ew
Ġr ang
ĠTreat y
Ġport ray
Ġins pired
C on
Ð°Ð± Ð¾ÑĤ
ra cy
Ġ9 0
Ġport ion
Ġspl it
un der
man n
Ġ197 7
ĠC orn
Ġg un
Ġcapt ured
Ġarchitect ure
ord ers
alle l
Ġd ra
ĠB re
ĠJ ones
T V
Ġem peror
Ð ¢
Ġtri ed
Ġsc ale
i ro
Ġrev olution
ĠVietn am
am ber
ĠO ver
w ater
Ġhous es
ÑĢÐ° ÑĪ
ĠC at
Ġrec omm
Ġshow ed
Ġcomplet ely
Ġres istance
Ġab andon
Ġ )
Ġst aff
Ġg ained
Ġsl ight
n o
Ġhe ro
ac her
am ily
Ġstud io
Ġbe y
u ate
ach us
com m
Un ited
te en
ĠOr gan
Ġp ra
ic ks
Ġoffic ers
m osp
ent y
Ġ4 4
ĠB ig
Ġsome one
av a
Ġdep end
Ġse arch
Ġcompet ition
ĠBy zant
Ġra in
Ġbehav ior
Ġex change
form ed
3 1
Ġdr um
Ġmov ing
Ġinst ance
Ġun ique
Ġneg ative
ol t
ĠAd m
Ġapp arent
ĠÐ´ ÐµÐ»
Ġ196 6
Ġch ap
3 8
ĠTh us
cl ass
Ġgo al
5 5
Ġfrequ ency
w ing
Ġex act
ĠB ure
Ġwrit e
ĠFlor ida
op es
Ġapplic ation
Ġdec ades
ĠWilliam s
M us
Ġ iron
ĠM u
ĠAb out
ĠFranc isco
Ðµ ÑĨ
ĠSecret ary
Ġgovern or
ĠBer lin
m at
Ð» Ñİ
ĠUn ivers
d own
ul ate
ĠBudd h
im ents
Ã³ n
= "
por ation
ĠBro ad
c ient
W ith
Ġover all
Ġcoll abor
Ġev olution
6 6
ro g
ĠPenn sylvania
ĠT w
ĠE le
ĠAl f
Ġcaus es
ĠGree ce
Ġform ation
ĠM ic
ĠB ell
ok en
e qu
ĠAd d
il ms
erv ed
Ġd ark
ĠY ou
Ġexp ress
Ġtechn iques
ĠAl so
ĠAtl antic
st one
in ity
Ġf uel
Ġh un
Ġw inter
ic ed
ĠÑģ Ð°Ð¼
Ġgreat est
Ġgrant ed
ĠAr ts
ĠR og
Ġrec ently
ĠP akistan
ony m
ct ors
s en
et ball
ol n
Ð» ÐµÐ½
Ġorgan ized
Ġmed ieval
Ġconst ructed
ĠV an
Ġw inning
ĠS ar
Ġs n
C omm
Ġal le
ĠE lect
Ġsomet hing
w a
Ġsubsequ ent
Ð¸Ð ±
Ġke pt
Ġprote ction
ĠJ ersey
ĠÐ ĵ
Ġte x
l ers
ĠCo ast
Ġy oun
Ġre action
Ġattempt ed
ĠB at
l ar
ic ians
Ġar ms
n ce
Ġhand s
Ġbey ond
Ġc orn
Ġident ity
Ġoper ated
it age
Ġph ase
ac ent
Ġal gor
7 7
9 8
tain ment
Ġexp ressed
ĠPro v
Ġv an
ĠH an
Ġdesc ript
Ġredu ce
ut s
ĠH or
Ġj oint
Ġexpand ed
er a
ĠJ ackson
ĠColumb ia
ot ion
Ġsequ ence
Ġsit uation
Ġqu al
Ġun c
Ġw alk
Ġdedic ated
ĠâĢ ľ
Ġprov in
Ġfact ors
ĠPal est
Ġwe alth
Ġb it
ĠG all
Ġdev ice
Ġmot ion
Ġanim al
B S
ĠT ro
II I
Ġd igital
Ġvol ume
Ġbeg ins
z er
am ing
ruct ure
ĠG ame
ĠSt at
Ġsupp ly
Ġs un
ze ch
ĠRec ords
al ing
Ġb ond
Ġbir ths
oc ol
ĠG ames
Ġf r
or a
or ing
et ts
Ġpar liament
ino is
Ġpr on
Ġme ant
er al
Ġo vers
Ġinstit utions
ĠR h
4 4
r ates
gh an
ĠRad io
ĠM ajor
ÑĢ Ð¾Ñģ
5 00
Ð» Ðµ
Ġcon sequ
ir al
Ġcreat ing
Ġf elt
T A
Ġatt ra
re c
Ġb ad
Ġs ail
ict ional
ify ing
Ġh ap
b ook
ĠO ut
ĠC y
Ġfield s
ĠPortug uese
Ġprogram ming
F rom
I C
Ġrail way
Ġext rem
ĠB ecause
g g
r ants
Ġrec ording
Ġdam age
ĠÐ´ ÑĢÑĥÐ³
9 2
Al though
g al
ib li
k es
ost on
l ies
ĠHistor ic
ĠH uman
Ġestablish ments
B l
ĠSup reme
ĠW ater
Ġwh y
Ã¡ n
ĠM ov
ĠÐºÐ¾ ÑĤÐ¾ÑĢ
ĠThe atre
ak s
e ed
s uch
d ess
Ġse ek
igen ous
om y
ar ia
he im
7 6
Ġch o
Ġbase ball
Ġcondu cted
Ġacc omp
ĠS and
Ġp overty
am ples
iet ies
Ġs le
Ġcontin uous
Ġr ates
Ġnear by
p oint
ent ially
i ate
Ġext ensive
Ġs ought
Ġinv asion
Ġc overed
Ġreg ist
inc oln
Ġsurround ing
Ġro ugh
ag ement
Ġproject s
se x
Ġs port
ens ions
en ing
Ġterrit ories
ĠAss embly
Ġa ctions
Ġ196 3
Ġcon vers
Ġresp ond
in er
it ness
ra q
Ġpain ter
Ġsuff ered
Ġel se
ĠC ub
ru it
al so
Ġb ridge
P A
Ġmin utes
ograp her
Ġ196 2
Ġfe at
ĠAb b
Ġb ul
ĠSwed en
Ġcont ext
Ġun ion
at i
Ġengine ering
el d
og en
Ġ194 4
ĠM od
ĠP ubl
ĠP ier
Ġse g
im a
av en
Ġstand ards
Ġcapac ity
Ġrel ative
9 3
el er
ul pt
Ġp aid
Ġdeterm ined
Ġrank ed
A m
Ġofficial s
on ald
Ġmot or
Ġattempt s
Ġaut h
Ġp et
ĠW eb
G erman
Ġf air
Ġout put
ĠKore a
ĠGeorg ia
ĠOh io
om ers
w er
c a
Ð½Ð¾ Ðµ
re te
ĠNob el
Ġw ild
ÑĢ Ð°Ð²
Ġimport ance
Ġjournal ist
Ġequival ent
Ġro ll
ĠÐ¿ÑĢ Ð¾
Ġst rug
ir med
Ġn or
um es
Ġcom edy
al i
ĠO s
Ġvot es
z y
ĠW ay
Ġacqu ired
b i
Ġs we
Ġm ixed
in us
Ġnov els
le m
Ġdev ices
Ġ194 8
ly wood
a o
Ġref lect
Ġb rand
Ġexist ing
ĠM odern
Ġr ing
Ġp urs
Ð¼ Ñĥ
Ġpre fer
Ġdescrib es
oc key
ĠStep hen
Ġat mosp
ash ion
ĠM ah
ĠC reek
ĠOlymp ic
Ġmin im
ĠÐ¼ Ñĭ
Ġconn ect
y an
i i
ur ation
m ont
Ġtransl ation
Ġl ives
Ð´ Ðµ
4 8
m iss
ĠU k
og y
ran ce
ĠU l
ĠMar g
g ers
is f
ĠÐ· Ð½
en ger
Ġlaun ch
Ġed itor
Ġt un
ĠAr thur
ĠMar sh
Ġlead ership
Ġmyth ology
Ġrece ive
ĠÑĤ Ð¾Ð»ÑĮÐºÐ¾
D em
Ġb ass
ĠJes us
Ġworld wide
v ant
Ġcy cle
Ġro om
Ġtransl ated
Ġmount ain
ĠTh ree
Ġtra ffic
ĠT ai
ad ed
Ġacc ur
Ġexec utive
Ġhyp ot
ĠNew s
ĠÐ´ ÐµÐ²
in du
d es
g u
Ġrul ed
h ire
ĠM r
Ġc e
ĠChar l
ad el
ĠSt and
ĠM icro
ĠD NA
rop ri
Ġoper a
ĠH on
Ġcrit ics
Ġcandid ate
Ġd ig
C C
Ð ł
ĠW ild
ĠGold en
achus etts
Ġad ap
ĠOr thodox
Ġprov ed
qu arters
Ġprov iding
Ġposs ibly
A F
Ġfact or
Ġfail ure
Ġm el
oc racy
ĠÐº Ð¾Ð½
rup t
b ro
ĠG en
ÐµÑĤ ÑģÑı
Ġ193 9
I N
Ġh ab
Ġopp ortun
o es
Ġadv oc
ĠIll inois
ĠWil son
Ġnewsp aper
ab ama
Ġmom ent
ĠSp ring
Ġw a
ound ed
act ive
s ong
ĠCh ap
Ġliter ary
Ġocc asion
i at
ell er
ÑĢ ÐµÐ¼
in cluding
ĠÐµ ÑīÐµ
Ð¾Ñĩ ÐµÐ¼Ñĥ
P op
Ġen j
S e
Ġcondu ct
Ġre asons
ĠG er
iss ance
Ġinhab it
us al
ffic ial
Ñĩ Ð¸ÑĤ
.. ..
Ġpar allel
Ġfin ished
Ġcr im
1 00
Ġex clus
Ġb ra
eder ation
in y
Ġto ward
Ġ ĠĊ
ag er
8 3
Ġa id
ic y
ĠB us
Ð¸Ð» Ð°
Ġdou b
N ational
Ġp ick
Ġact ors
od ay
olog ists
Ġpr ice
M ar
ĠU r
Ġact ual
c oh
pl ace
c ious
ĠG r
Ġsuggest s
9 1
Ġf olk
i ography
Ġw all
Ġse lected
Ġs ales
Ġatt ended
Ġsub st
Ġb odies
Ġposs ess
ĠF oot
Ġar ts
ĠCh ampionship
Ġpie ce
Ġc ore
ĠÐ½ Ð°Ð´
ĠAnd rew
ĠC ard
ĠG reg
ov en
Ġsub stant
Ġs olution
Ġoccup ied
ĠÐ¿ Ð¾ÑĤ
Ġcar ry
Ġkill ing
Ġcontroll ed
l ines
ĠPro ject
ild ing
ĠC zech
ĠÐ± Ð¾Ð»ÑĮ
ĠSer ies
ĠPro f
v est
Ġro b
Ġ196 1
Ġpolic ies
J ohn
are t
Ġsol id
ĠB oston
ĠJ ournal
Ġt im
ut her
ed ition
or g
Ġsh ape
Ġsus p
ĠÐ»Ñİ Ð±
a is
Ġs ides
k ing
Ġn ations
Ġmaxim um
ĠY oung
Ġform at
aw a
Ġposition s
Ġincreasing ly
Ġachie ved
ĠPhil ipp
Ġfor ward
Ġact s
Ġass ist
ĠB ridge
rel ated
Ġfa ith
6 7
ĠF e
Ġcon g
8 4
Ġprincip le
ĠG ood
ort heast
os m
res h
ĠÐ Ń
Ġus er
Ġhistor ic
y es
ĠM oon
ĠMex ican
Ġsett led
ĠCh ief
Ġf ixed
om ew
ip h
and om
olog ies
ad s
Ñĥ Ðº
A ll
ament al
Ð £
Ġsc ulpt
ig er
Ġcont ained
Ġfight ing
ĠB ooks
ĠL ittle
Ġ5 00
Ġset ting
itz er
ĠAr m
Ġenc oura
Ġr h
ĠMass achusetts
Ġcomb ination
ĠL incoln
Ġheav ily
se y
ĠProt est
' re
D es
Ġpro port
S ince
Ġsp ring
ĠÑĥÐ¶ Ðµ
cript ion
ĠC E
Ġ194 1
ist ical
Ġclass es
20 10
Ġbas k
Ġ |
ĠJ oh
ipp ed
ÑĤÐ¾Ð± Ñĭ
ĠBure au
Ġon es
Ġqu arter
Ġintrodu ction
Ġrequ ires
ĠA st
rom e
Ġsignificant ly
L ist
re es
ĠIslam ic
Ġentire ly
ak h
ce ived
Ġse ctor
Ġdevelop ing
ĠF ollowing
Ġsh ared
ĠAust ria
ud get
Ġsc hem
Ġli qu
Ġfac ilities
ÑĢ Ð°Ð½
ĠIn st
Ġviol ence
ĠÑĤÐµÐ± Ñı
Ġsucceed ed
Ġdiffer ences
P S
enn es
ĠWind ows
Ġst one
ĠBo ard
rag on
ri x
sh ire
op les
Ð¾Ð´ Ð¸ÑĤ
Ġeas ily
Ġpro ced
ĠI raq
Ġ194 2
uck y
om ic
Ġphen omen
m m
is p
Ġauthor ities
Ġp an
ĠLe on
Ġele v
ĠF ree
Ġcr ime
cy cl
Ġcor rect
Ġel im
ĠS ong
Ġpie ces
Ġdr ive
ris ing
am ic
ĠP op
Ġreport s
ĠM id
ĠCon ference
Ġsc ore
Ġ ;
T rans
ad ing
Ġch oice
in ction
Ġdescrib e
Ġaud ience
Ġview s
ot o
3 9
Ġauth ors
Ġcolon ial
I A
b ell
Ġcan cer
r Ã©
ter m
ĠAl abama
Ġord ers
ĠÂ £
ĠAf ghan
Wh ile
ĠFreder ick
ĠA wards
ins ula
ĠR ay
ĠS u
Ġr ural
rodu ction
ĠAr gent
Ġreve aled
Ġvis it
Ġ195 6
Ġcontin ues
b a
g a
Ġvis ited
Ġp air
ĠS at
ĠF air
Ġadvant age
Ġhap pen
ĠL ine
ath s
Ġd ang
ĠÐ ķ
Ġplat form
C an
O r
Ġm aster
ĠMiss ouri
ĠE ach
s et
ĠAs h
Ġdistrict s
ut ation
ĠM inist
ĠJ r
our ce
ru ck
Ġthr one
ut en
Ġhor se
Ð° Ñĩ
Ġco ord
Ġl at
Ġanal y
w ick
ĠH un
ĠBl ue
Ġreject ed
ĠHe alth
ĠP C
Ġclos ely
B e
Ġb oy
Ġfeat uring
Ġd ance
Ġtre es
ĠS her
ron ic
Ġplan et
Ġt alk
ch ar
ÑħÐ¾Ð´ Ð¸ÑĤ
ol is
y gen
ĠH ay
ĠU s
l aw
on ian
iss ipp
Ġop in
Ġcom ing
Ġcol umn
amb ig
Ġgener ation
Ġspe ct
ĠFranc is
ĠÐ¿ Ð¾Ðº
Ġinstr uments
P olit
Ġpublic ation
ĠI BM
I S
Ġspec ifically
Ġprocess es
Ġenvironment al
Ġ *
il ing
ĠD omin
Ġcaus ing
Ġdes cent
ĠL i
Ġcal c
ib b
Ġim ages
Ġmanag ed
ph one
ĠDe velopment
Ġro les
Ġpart n
Ġcomp onents
Ġcamp us
Ġc ab
Ġthous ands
eg et
Ġcirc um
Ġserv ing
Ġt al
C ol
L e
ri f
Ġatt end
Ġfle et
Ġnuc le
Ġconne ction
Ġ ign
Ġse ats
v an
P r
ĠT est
Ġl ingu
Ġnew ly
Ġnob le
4 6
Ġar med
re p
Ġserv es
Ġ194 7
Ġtex ts
Ġb ill
Ġstud ied
ĠL ar
ĠB on
ĠO cean
int on
Ġgl ass
Ġb an
ĠÐ¾Ð½ Ð°
h at
Ġch urches
Ġfre edom
it led
ĠAp oll
ĠO f
Ġinc orporated
ĠÐ´ Ð¾Ð¼
ĠByzant ine
Ġf ear
ak a
ĠC D
Ġpain t
Ġph r
Ġcall s
enn is
Ġsp oken
Ġcomb at
Ġtra in
il ton
Ġ194 6
Ġst ream
Ġcon vent
Ġb rain
Ġadv anced
Ġslight ly
W e
% .
Ġst ock
Ġtri al
ĠCent re
ad er
Ġsecond ary
ĠIm perial
Ġaff ected
ĠLew is
ol y
ÑĮ Ñı
Ġag g
Ġ195 9
ĠMich igan
Ġmaintain ed
ĠC oll
Ġfe ed
ĠÑĢ Ð°Ð±Ð¾ÑĤ
Ġch osen
bur gh
Ġsu p
ĠMar c
ĠT al
os ite
ĠBar b
e ign
Ġtemper atures
Ġ rom
ĠPol it
Ð½Ñĭ Ð¼
Ñİ ÑĤ
Ġlaw yer
Ġ ÑĨ
en h
Ð½ Ð¸
Ġ195 8
Ġstat ement
Ġm ap
Ġdep artment
ĠEar ly
Ġv ess
ĠL ove
c ar
ĠF ield
Ġwe ak
ĠSec urity
Ġnar row
Ġveh icles
Ġnot ably
Ġa th
Ġlab el
Ġw ides
Ġfl ood
ĠO d
ins on
Ġs and
ĠInd epend
ĠS und
ĠL es
ĠÐ½Ð° Ñģ
ĠCol or
Ġthe rm
Ġinv ent
Ġobtain ed
Ð½Ñĭ Ñħ
issipp i
ĠNaz i
Ġprop os
ĠD ie
Ġend ing
m ad
ĠCh ild
Ġfif th
Ġstreng th
ĠT it
Ġd ivers
ĠGu ard
Ġr ival
ĠCor poration
T o
Ġrepe ated
ĠEn ter
ĠC op
Ġst reet
Ġenj oy
ĠB ase
6 8
g rad
Ñĭ Ñħ
i ac
Ġfl at
7 4
ĠO pen
ĠHisp anic
Ġal ph
Ġor bit
re al
un a
ke e
m es
im s
Ġstr ateg
for mer
Ġjur is
ĠÑĢ Ð°Ñģ
ÐµÑĢ Ð°
ĠE th
in cess
Ġch annel
Ġ194 3
p read
enn a
Ġjo in
Ġc risis
ĠTer rit
ĠOtt oman
st ream
Ġper haps
Ġpo em
Ġhold s
ĠS av
% ,
ac he
A R
Ġf ounder
Ġprincip al
Ġepis odes
Ġs now
ant asy
Ġcap ita
ĠPl an
Ġrat io
p ower
ĠL y
Ġv ac
' .
ÐµÑĢ ÑĮ
g r
Ġd iam
ĠÐļ Ð°Ðº
ĠÐ² Ð°Ñģ
so ft
over eign
b u
ĠF urther
Ġsat ell
Ġun able
ĠD igital
ĠÐ½ ÐµÑĤ
Ġinhabit ants
ĠE s
f all
ÐµÐ» Ð¾Ð²
ĠTown ship
Ġ194 9
or gan
Ġtrib es
Ġemploy ed
Ġm ile
ĠH it
Ġc rown
ition ally
ĠDan iel
7 8
Ġb ishop
ocr atic
ou red
Ġus ers
Ð¸Ð» ÑĮ
ay lor
Ġult imately
il ly
Ġin put
Ġle aves
Ġimpro ved
p et
Ġc amer
Ġcal cul
Ġregard ing
Ġappro ved
ĠEgypt ian
ĠN ight
Ġback ground
Ġtyp ical
g le
n es
ĠB oy
ak ed
Ġalong side
ĠM ir
ĠO t
S S
ĠEng ine
Ġf ra
Ġd aily
Ġd raft
Ġvot ed
Ñ į
ĠPers ian
ĠR am
Ñĥ Ñħ
ĠS pecial
Ġexp ression
Ġg ar
Ġg ram
Ġsk in
ĠIsrael i
ĠM ax
Ġsil ver
ĠK ansas
ust er
Ġbeg in
ĠVictor ia
Ġact ing
F ilms
Ġh app
et ime
C omp
Ġab ol
ĠH ug
4 2
Ġtrans ition
Ġabs or
ĠÐ¾ Ð¿
ĠMar ia
ĠL et
ĠB ible
Ġdef ense
ĠÐ³ Ð¾Ð»
Ġb ott
c ome
ibli ography
ĠChristian ity
Ġre ally
ĠM ot
Ġuse ful
Ġpopular ity
Ð¾Ñģ ÑĮ
B rit
Ġl oad
Ch ar
orn ing
Ġsim pl
Ġf at
ĠD un
h an
ĠCon n
ob e
Ġco ol
ĠEar l
ĠH ot
Ġf ashion
el a
Ġle ar
F A
ĠÐ¼ Ð¾
Ġcom ic
Ġdel iver
Ġmanufact ur
ro x
ĠFound ation
Ġdesign ated
ĠHe b
ĠP ower
Ġis ol
Ġtechn ique
f am
ĠR od
Ñĭ Ð¼
ĠDe v
Ġre act
T reat
Ġc old
Ġ195 7
M any
Ġtit led
Ġpurp oses
c ular
Ġvers us
ask a
Ġrec ip
Ġdec ade
ĠÐ¶ÐµÐ½ Ñī
ĠS a
ant ry
Ġphilos opher
ĠCommun ity
ĠRep resent
Ġv ow
Ġdecl ine
Ð¸ÑĪ ÑĮ
Ġf ram
Ġw ars
ĠB ir
Ġadap ted
Ġwides pread
ĠA k
Ġren amed
Ġcommunic ation
o en
Ġgod s
Ġex ternal
ĠC am
ĠG h
Ġ15 0
ĠJust ice
ĠO b
ĠÐ² Ð¸Ð´
Ġperman ent
ÐµÐ» Ð¸
or age
el lect
Ð¸ Ñİ
Ġnot hing
ĠP ict
Ġunder standing
Ġcour ts
us cript
ĠAm ong
199 0
Ġst ring
Ġass ass
7 2
ig ation
Ð°Ñģ ÑĮ
Ġconf irmed
ĠD yn
el ine
Ġal t
i enced
Ġm ist
Ġtreat y
oun s
Ġgood s
ra v
we gian
ĠÑģ Ð¾Ð±
Ġal coh
Ġint elligence
ÐµÑģ ÑĮ
ian ts
l oad
at ically
Ġdr ink
t es
Ġpe oples
w orth
il a
Ġwhere as
Ġhe ight
al y
f ort
ĠKore an
pt on
ĠOr ig
Ġthe ories
ĠÑģ ÐµÐ±
ict ions
c alled
Ġh ospital
Ġch air
Ġf ile
al o
Ġcon cluded
Ġch art
ie ge
Ġcateg ory
ful ly
8 1
ambig uation
Ġz ero
ĠCast le
in der
N ot
Ġpl ane
Ġbur ied
Ġc ards
ĠS anta
ill ing
Ġarch ae
ĠMiss issippi
Ġagric ultural
Ġc od
rap y
ĠDou gl
Ġprog ress
Ġf ranch
Ġv oc
ĠFore st
i ency
amp ion
18 5
Ge ography
ab et
Ġ3 6
Ġh op
Ġl ibrary
Ã ±
Ġf irm
ĠÐ³ ÑĢ
ĠÐ¾ Ñĩ
Ñģ Ð¿
Ġwe ather
Ġdeb ate
Ġto m
os ure
Ġpro s
Ġbe aut
k o
Ġpract ices
f rom
or us
Ġneed s
Ġextrem ely
ÐµÐ½ Ð¸Ñı
os ph
Ġbro ke
R el
ĠEn d
ĠSh ow
Ġbask etball
Ġpro ceed
Ġf ought
ĠV ar
Ġlear ning
Ġoff ers
Ġaspect s
Ġqu ite
Ġex erc
ĠA ri
Ġpop ulations
Ġopp osite
ĠHol lywood
song writer
Ġs ons
Ġother wise
pr ise
i y
ÐµÑĤ ÑĮ
ĠJ on
Ġend s
Ġs ort
s m
j a
ĠE ven
Ġcou ples
Ġelectron ic
x ual
ĠS us
4 1
Ġsu fficient
Ġex ists
Ġsyn d
ain ts
z en
Ġband s
Ġ ille
Ġtw ice
z o
ĠAust rian
cul es
Ġunivers e
Ġinflu ential
Ġsem i
k er
el ve
Ġprot ected
ĠT our
ann ed
in als
Ġsur vey
ĠDen mark
ro c
Ġmagn etic
Ġalle ged
ĠÐ¿ÑĢ Ð¾Ñģ
Ġre in
ym ph
7 1
ĠK en
ĠNap ole
umn i
ograph ical
M A
Ġcontrib uted
ay a
Ġsaf ety
ĠPro gram
ĠB a
Ġprodu cing
Ġpro hib
ific ations
ĠÐ Ľ
Ġpre ced
Ġchall en
we alth
ĠF inn
Ġpl ot
ĠV i
Ġ3 00
in th
ĠL ie
Ġdeterm ine
ĠÑģÐ¿ ÑĢÐ°ÑĪ
Ġscient ists
ĠDis ney
ann a
T O
ĠÐ´ Ð»Ñı
iv als
cycl op
ru ce
Ġn aval
Ġadminist rative
I V
um in
Ġaccount s
ĠC r
ĠÐº Ð¾Ð¼
Ġmathem atic
Ġc ars
Ġvis ual
Ġl ies
8 2
er ies
ĠS everal
ĠÐµ ÑģÐ»Ð¸
Ġtit les
Ġwe b
Ġco ok
Ġdoc uments
Ġox ygen
d on
Ġ193 6
Ġd ie
Ġcost s
Ġv eget
hol der
Ġpil ot
M an
Ġst re
ial s
Ġrough ly
Ġim perial
Ġgod dess
Ġre ality
Ġimpro ve
Ñ Ĭ
ĠTai wan
Ġs omew
se ud
Ġs an
Ġdep ending
ĠAlex and
4 3
Ġ195 3
ĠC O
ivers ary
Ġp ure
w estern
Ġ195 2
ĠCor ps
Ġjuris d
t hen
ĠL o
ĠD am
ens es
ĠÐ½Ð° Ñĩ
Ġunivers ities
ĠÐ´ ÐµÐ½ÑĮ
dis ambiguation
ĠÑĩ ÑĤÐ¾Ð±Ñĭ
ĠE ducation
ra ine
Ġhe ard
Ġ195 5
Ġd ry
Ġmunicip al
u is
a ug
Ġsym pt
N e
Ġem pire
Ġyoun ger
Ġmusic ians
ro up
Ġse ems
Ġroad s
Ġconcer t
ĠÑģ Ð¾
L A
Ġmusic ian
Ġthem e
G eneral
Ġag o
M S
ÑģÐº Ð¸Ð¹
ĠS em
4 9
ĠE st
Ġgreat ly
Ġgo es
ĠDav is
ĠStud ies
Ġrul er
ĠC as
Ġr ivers
ÐµÐ½ Ð¸Ðµ
ĠH y
i able
adel ph
ĠT op
Ġrad iation
Ġmer ch
E urope
Ġh air
Ġe at
ĠF orm
M y
un c
ĠHar ry
ĠW omen
ĠD er
Ġassoci ation
ĠNor way
Ġgen etic
ĠÐ´ Ð¾Ð»
clus ion
Ġn om
Ġinvol ving
c rib
ĠOn line
ĠM P
Ġr ich
Ġstrong ly
Ġan sw
ul es
Ġsever e
ol as
Ġexcept ion
ĠIndian a
Ġf rag
Ġmov ements
Ġc as
Ġf estival
ĠD anish
op l
Ġ193 8
Ġperson nel
Ġtradition s
Ġdef end
Ġ195 4
ĠFoot ball
ir a
els h
Ġhistor ians
R ec
Ġch ain
Ġlink ed
Ġn ick
Ġd ates
le ts
Ġshe ll
Ġ3 3
Ġdo ing
Ġcomp l
6 1
Ġmed ium
6 3
Ġm il
Ġb ow
ell o
ĠF ame
Ġgovern ments
Ġdesign s
Ġengine er
Ġun p
Ġv en
Ġmeas ures
Ġad vent
Ġleg end
` `
Ġrecogn ition
Ġ( ),
Ġmult i
Ġb udget
H z
r ator
Ġgra v
ĠM inn
Ġ19 18
Ġpoet ry
p ed
Ġveh icle
an cing
ar ks
Ġtheore m
Ġlead s
Ġattack ed
Ġm ilit
ĠL abor
Ġex pect
Ġadv ance
Ġpre par
Ġthe atre
ĠAt t
Ġtechn ical
Ġconsist ing
ĠÐ¸ Ð½
Ġd rop
ĠInd ones
ÑģÑĤ Ð°Ð²
ord an
Ġrapid ly
ÑĤ ÑĮ
ĠHar vard
Ġal ter
Ġincre ases
Ġtw enty
Ġabandon ed
ann ing
Ġcry st
Ġloc ations
Ġexper ienced
ĠPal ace
Ġwinn ers
ĠK ong
Ġim ag
ctor al
Ġp age
rast ructure
ĠÐ¿ Ð°ÑĢ
Ġsh all
usal em
7 3
ĠC ab
ar p
em ic
Ġcy cl
ĠO k
Ġhead quarters
Ġsupport ing
idd en
Ġperforman ces
6 2
7 9
em an
ĠH u
ĠÐµ ÑģÑĤÑĮ
Ġconver ted
Ġequ ation
Ġdram a
ic ide
om ing
Ġste el
ge bra
Ġmake up
Ġrequ est
ĠF ord
h ard
Ġc ra
ĠFore ign
Ġon to
Ġexpl ain
Ġso il
pect ive
ĠS uch
Ð¾ÑĢ Ð¾ÑĪ
ĠL ady
Ġass igned
Ġsuccessful ly
ct s
0 1
Ġw alls
hip s
Ġestablish ment
A ust
act er
Ġin form
ph y
Ġy outh
Ġschol ar
ars h
Ġaff ect
unic ations
Ã© e
Ġcrim inal
ĠOlymp ics
kn ow
Ġpar am
ĠT a
ĠU t
ĠCon vention
Ġter ror
in ations
es c
Ġcor por
Ġ Å
ĠChrist mas
Ġnet works
ĠJ oe
ĠÐ¿ Ð¾Ð¿
Ġpain ting
Ġdisc overy
ĠS ax
ĠJac ob
ĠFor ces
Ġext ent
Ġ193 7
Ġp ul
Ð°ÑĤÑĮ ÑģÑı
Ġemer g
Ġm outh
ĠW ork
Ġcur ren
Ġcapt ure
f ri
w ich
t ure
Ġv o
rop ical
ĠAn ne
ult an
Ġatt ract
Ġ19 00
ĠSum mer
id ge
av ed
Ġtransfer red
Ġse asons
Ġdo ctr
it i
ĠF ox
Ġide al
Ġz one
Ġcomm ander
ĠN ich
Ġc rop
Ġcomput ers
Ġstra ight
Ġres emb
Ð¾Ñģ Ñģ
Ġge omet
ag a
ang el
vent h
res ents
ĠL im
Ġeng ines
Ġdecl ined
Ġe gg
uss ian
ĠSc iences
ĠT ar
ennes see
ĠV ill
ris es
Ġf ans
Ġaccomp an
Ðµ Ñħ
ĠBow l
Ġdocument ary
ĠM agn
Ġad vert
Ñģ ÑĮ
ost er
ÐµÑĤ Ðµ
Ġfoc used
ĠG ulf
ĠInd ust
ĠA ff
ĠChrist ians
ĠC irc
a fter
ĠM ilitary
ĠÐ³ Ð»
ĠMount ain
M ost
b al
ĠI d
ĠÐĴ Ñĭ
Ġplann ing
ĠO p
ĠIn f
Ġcritic ism
Ġprote in
Ġdeg rees
ĠHit ler
ir ty
Ġart icles
Ġsu st
Ġp ione
Ġcon ference
Ð ĳ
ĠNor wegian
Ġmess age
ĠF ire
im ens
ĠÐ¿ Ð¾Ð½
ĠK ir
Ġmanufact uring
i ations
Ġapp ropri
Ġline ar
j an
ĠThe od
ĠE ll
ud es
Ġliber al
l ong
ĠGerman s
Ġperiod s
Ġabs ol
ĠV is
ĠSt ation
Ġfav our
Ġenem y
g ium
ĠÐ´ Ð¾
j i
p ass
Ġst ore
Ġso le
Ġwor ship
adelph ia
Ġn it
Ġeffect ively
F rench
ploy ment
ĠWal ter
ĠP oint
ĠR et
r un
Ġfund amental
Ġsuccess or
198 0
ib l
ĠR os
y les
ĠT aylor
ran ean
Ġmathemat ics
an es
Ġin her
ĠP ap
ograph ics
ĠD isc
Ġsl aves
Ġann oun
av el
6 9
ok es
Ġs overeign
ĠH indu
V D
Ġliqu id
Ġrese arc
Ġhost ed
ĠG i
ov a
Ġind igenous
Ġquant um
ĠAngl o
ish ment
b ec
Ġr andom
ĠH ans
ap pe
Ġnot e
Ch rist
ĠS ant
Ġrep resents
Ġus age
ra it
le vel
ĠS ab
ant ly
Ġphys ics
go ing
ĠZ h
ĠTem ple
o a
ĠAn th
ra c
Ġair port
ĠDougl as
Ġres erv
R C
Ġm ort
Ġprocess ing
Ġ195 1
ĠPe ace
r ating
Ġv ector
Ð´ Ñĥ
ĠÐ¼ÑĥÐ¶ Ð¸Ðº
Ġtr ust
Ġfe et
i op
Ġper fect
Ġv ast
Ġp ray
Ġth ing
it ual
ĠT urn
ĠD et
Ġcon vention
ĠTechn ology
Ġsle ep
Ġpartic les
Ġconsider able
claim ed
ÑĤ ÑĢ
ran e
Ġor che
ition al
ĠÑĤ Ð°Ð¼
ĠCap tain
Ġsc enes
Ġdro pped
ĠG re
de f
ĠÑģÐº Ð°Ð·
ap es
ĠÐ¾ÑĤ Ð²
Ġindic ate
ĠC ape
it arian
ĠÐ² Ð¾ÑĤ
Ġcap able
c ers
ellect ual
ĠJer usalem
ĠI S
ĠH ard
ĠLat ino
ĠG il
el ess
ĠConf eder
uer to
ath an
Ġcou ple
m i
Ġinterp re
E T
vel t
att les
ĠMed ic
Ġy ield
200 5
ĠH ome
200 7
ÐµÐ»Ð¾Ð² ÐµÐº
Treat ies
Ġagric ulture
Ġstr ate
ĠF le
Ñĭ ÑĪ
out s
Ġlay er
Ġstrate gy
ĠL yn
ĠR oll
Ġhold ing
ĠSt one
che ster
Ġro w
Ġattrib uted
em eter
ĠSim on
ĠÐ¿ Ð¾Ð¼
ĠB all
Ġref uge
ult y
Ġt ren
ĠS ic
Ġv ice
Brit ish
Ġformer ly
Ġalgor ithm
Ġed ge
ĠB rad
Ġman ner
Ġspirit ual
Ġd oll
ĠÐµ Ðµ
Ġ7 5
Ġprincip les
ĠApp le
Ġmedic ine
Ġsol ar
id i
â ĪĴ
Ġcoast al
Ðº ÑĢ
Ġm ir
ĠÐ² ÑĢÐµÐ¼
Ġcop ies
ol i
Ġf resh
A S
ot ing
Ġdi agn
ĠCommon wealth
Ġm inist
Ġb at
Ġ193 3
Ġrepresent ation
Ġemer ged
b ar
ÑĥÐ ³
Ġoper ate
ur ance
Ġacc ident
Ġg ender
Ð¸Ð» ÑģÑı
ab y
Ð¸Ð½ Ñĭ
ĠCol on
Ġlog ic
U S
ĠCommun ist
iction ary
Ġconcern s
ow a
ĠÐ² Ð¾Ð·
ĠÐ¢ Ñĭ
ron ze
Ġform ula
Ġe ye
Ġsepar ated
ĠD or
Ġhydro gen
Ġdesc end
h and
Ġcol ony
Ġassum ed
u v
te xt
m ers
igh th
Ġt aught
id ers
Ġap art
ĠPh ys
Ġmass ive
ĠSqu are
Ġv el
Ð°Ð¶ Ð´
ĠÐ² Ð¾
! "
un ch
ĠA h
and y
Ġtrans mission
ĠProtest ant
ug by
Ġexec uted
Ġform ally
ĠP ass
Ð°Ð· ÑĭÐ²
ĠC P
Ġman uscript
Ġacc used
Ġ192 9
Ġdomin ant
Ġm iles
ĠHeb rew
Ġ19 19
ĠLouis iana
Ġinstit ution
i pe
end ment
0 5
at ab
ĠProf ess
ar ation
ĠL ith
Ġhe ar
Ġco oper
Ġc atal
Ġro utes
Ġcharacter istics
Ġst orage
ose velt
Ġmeas ured
Ġinterpret ation
ĠÐ½Ð° ÑĪ
f are
ĠAlf red
ĠBe ach
Ġinterest s
200 8
Ġse lect
ĠAut hor
ĠPro du
Ġm ac
ĠM ong
200 1
200 6
ĠM ain
Ġbound ary
ad ian
Ġpri est
overn ment
ĠT ennessee
Ġtest ing
ĠP ur
Ð Ĺ
ors es
ĠBC E
Ġrest aur
" ;
Ġl ie
ĠLaw rence
es ota
Ġsat isf
g ement
Ġrel ation
ĠC rown
ĠL t
Ġarg ument
E v
Ġcomp ounds
Ġexp edition
ĠÐ¸ Ð¼
Ġ3 4
ĠB ang
Ġprovin ces
ĠT ol
ĠH ell
ind ing
Ġj azz
Ġsp aces
ĠV I
ĠColor ado
Ġsl ave
Ġview ed
Ġbrother s
Ġunder stand
Ġmach ines
Ð½ Ñĥ
Ġclass ified
et her
Ġt rying
Ġesc ape
ĠB ush
ag en
Ġcomp onent
the less
ĠÐ» ÐµÑĤ
Ġsympt oms
Ġext reme
Ġgu ard
ĠMount ains
Ġa er
Ðº Ð¾Ð¹
Ġexpl os
ĠRail way
Ġent ry
Ġdet ect
ĠJoh ann
ĠC el
ĠM ach
Ġ19 17
Ġk ings
Ġexist ed
ĠDon ald
Ġdescript ion
Ġalbum s
O C
Ġconcent ration
em en
as ure
Ġrec on
Ġl ot
Ġres ident
oth ing
oc a
Ġachie ve
iter ranean
Ġtr uth
Ð´ ÐµÐ»
ĠSer b
ÐµÐ½ Ð½Ð¾
Ġdest ruction
ol ar
Ġro ot
Ġent itled
Ġaud io
Ġm ental
Ġdistrib uted
Ġgen re
Ġdetail s
Ġnorm ally
ĠS ix
ĠTurk ish
ru ctions
Ġdiv or
ĠRog er
osc ow
ĠK er
Ġtradition ally
W orld
oc ated
ĠW alk
Ġdr iver
Ġdel ay
ut ies
Ġ19 14
Ġmod ified
ĠTur key
ik h
Ð° ÑģÑĤ
ĠD own
ĠTh ough
ĠAr k
e enth
Ġb irds
ĠPhil adelphia
wh ile
ĠNor man
Ġst opp
ĠHow ard
ĠW elsh
Ġm ent
p at
ĠB ol
Ġt ell
Ġfl oor
Ġ193 4
Ġgrad ually
Ġarrest ed
Ġph on
or al
p resent
ĠF ried
Ġk il
Ġprom oted
Ġmod e
Ġ193 5
Ġclub s
Ġ ÑĥÐ¼
ĠRom ans
Ġneighbor hood
Ġsen ior
ĠReg ister
Ġatmosp here
Ġshow ing
ĠApoll o
Ġm art
ĠMar s
ĠKar l
ĠMem orial
ĠCa es
Ġvis ible
Ġt or
Ġphys ic
fam ilies
ĠL ight
O M
Ġinvest ment
Ġst ress
ĠAr men
it o
ol id
Ġpurch ased
Ġte aching
F C
ian g
Ġrefer ences
ĠEr n
Ġoper ates
Ĩ Ĵ
Ġcirc uit
Ġmor al
Ã º
ĠM es
Ġag ent
cer tain
Ġd iet
200 2
Ġshort ly
Ġst rict
Ġp it
ch ang
ri ent
Ġit ems
ĠÐ¿ÑĢ ÐµÐ´
ĠS yd
ÑĥÑĪ ÐºÐ°
a ver
al se
Ġst able
ĠJ os
st an
ĠAb d
Ġprofess or
Ġcerem ony
Ġcorrespond ing
j e
Ġ192 8
ĠSw iss
rup tion
ĠÐº ÑĤÐ¾
ĠÐ· Ð°Ðº
Ġadapt ation
Ġch ampionship
Ġpro of
ĠK u
ÐŁ ÑĢ
ĠA z
ĠH o
st ood
ot he
Ġspe ak
inn er
C om
Ġse lection
Ġext ension
ĠR ights
Ġguitar ist
iv ation
ul ed
Ġp ages
ĠG rant
ĠÐĿ Ðµ
Ġm and
Ġmet ropolitan
ly n
ĠK l
Ġd ating
ot os
Ġjud ge
ĠRo osevelt
ĠD ec
I T
Ġpl ate
ĠMer c
uss ia
Ġcritic ized
ur d
uten ant
ĠB ah
Ġinc ident
ĠSam uel
ĠLab our
Ġt ask
c hen
ov ak
t rans
Ġtra v
ĠÐ½ Ð¾Ð²
ĠÑĤÐµÐ± Ðµ
Ġh all
ĠBe at
i ology
oss ible
Ġh ockey
ĠPortug al
Ġinn ov
Ġs oul
p ress
Ġsp ons
ĠHung arian
ĠT y
Ġcall ing
Ġvari able
l ow
Ġrep utation
R oman
ĠA ges
Ġun f
anc ell
b ishop
if ies
Ġob l
H istor
Ġnomin ated
ĠOn ly
Ġdomin ated
Ġw aters
eng ers
our ney
ĠÐ§ ÑĤÐ¾
ĠKent ucky
ĠWh it
d am
itzer land
ĠMinist ry
Ġb ran
ĠD u
ĠW ell
Ġlegisl ation
199 9
Ġminim um
ĠÐ¾Ð½ Ð¸
Ġcandid ates
ĠR ena
om es
Ġpers ons
Ġthous and
ĠH ong
Ġlearn ed
in ite
an z
Ġcom ed
ĠAfghan istan
Ġf ictional
ĠÑĩ ÐµÐ¼
ĠC ur
rid ges
Ã ¢
Ġwrit es
An other
ĠS el
Ġne ither
ĠÑĩ ÐµÐ»Ð¾Ð²ÐµÐº
Ġ193 2
Ġstar ring
ĠMicro soft
ĠSund ay
Ġsett lers
ĠÃ ī
ĠFrank lin
S R
ĠC atal
Ġreg ime
Ġtre ated
m us
ĠÐŃ ÑĤÐ¾
v ements
Ġa w
Ð¸Ð ¿
Ġc ited
ic as
Ġth ick
Ġ3 7
Ġc able
Ġbe at
Ġopin ion
Ġhard ware
Ġc inem
Ġmark ets
Ġatt ached
port ation
Ġwor th
r ings
un te
ĠG ram
Ġgener ated
Ġtrans form
ĠYear s
wh o
ĠR em
Ġelect rical
Ġens ure
ĠF amily
u um
ĠR en
Ġceleb rated
Ġocc as
Ġwithd raw
ĠH al
ed ing
M L
Ġoff ices
ĠT oday
Ġw atch
own ed
Ġche ck
Ġsomew hat
Ġrelationship s
ĠB ad
Ġg ene
om orph
Ġ192 1
Ġear ned
fl u
ch a
Ġexpl ained
Ġfranch ise
ÑĤ Ð¸
Ġal leg
Ġv ent
in ally
az a
Ġcomm it
sc ape
ren der
Ġstri ke
Ġal umni
Ð½ Ð¸ÑĨ
l o
ot al
Ġdra wn
er ted
Ġst orm
ĠL ind
ty m
200 4
d in
Ġpract ical
Ġt ry
ro t
ĠÐ¼ Ð¾Ð»
ĠComm and
Ġac know
Ġprem i
Ġcult ures
el le
Ġcomm itted
ĠJ ordan
Ġ192 2
Ġprep ared
ĠS om
Ġconst ruct
Ġd ies
ig ious
Ġrepresent ing
Ġs ed
Ġess ential
Ġev olved
Ġmount ains
ĠAn cient
An d
el ly
ĠG DP
ĠÐ½ Ð¸Ðº
Ġsign s
Ġ192 4
ĠM oscow
ĠMed al
ĠÐµ Ð¼Ñĥ
ĠMinn esota
Ġh al
Ġn av
ĠE c
ĠW olf
Ġportray ed
id el
Ġinc orpor
ĠCount ry
Ġw ing
Ġhy per
ĠH ospital
ĠSt ock
ĠB and
ag u
Ġpass ing
5 3
us hed
Ġde leg
Ġsupp osed
et on
as er
200 3
Ġdep os
Ġdeb ut
id ae
B ibliography
Ġtem ple
Ġinvol ves
Ġreb ell
v i
