{
  "version": "1.0",
  "truncation": {
    "direction": "Right",
    "max_length": 128,
    "strategy": "LongestFirst",
    "stride": 0
  },
  "padding": {
    "strategy": {
      "Fixed": 128
    },
    "direction": "Right",
    "pad_to_multiple_of": null,
    "pad_id": 1,
    "pad_type_id": 0,
    "pad_token": "<pad>"
  },
  "added_tokens": [
    {
      "id": 0,
      "content": "<s>",
      "single_word": false,
      "lstrip": false,
      "rstrip": false,
      "normalized": false,
      "special": true
    },
    {
      "id": 1,
      "content": "<pad>",
      "single_word": false,
      "lstrip": false,
      "rstrip": false,
      "normalized": false,
      "special": true
    },
    {
      "id": 2,
      "content": "</s>",
      "single_word": false,
      "lstrip": false,
      "rstrip": false,
      "normalized": false,
      "special": true
    },
    {
      "id": 3,
      "content": "<unk>",
      "single_word": false,
      "lstrip": false,
      "rstrip": false,
      "normalized": false,
      "special": true
    },
    {
      "id": 4,
      "content": "<mask>",
      "single_word": false,
      "lstrip": false,
      "rstrip": false,
      "normalized": false,
      "special": true
    },
    {
      "id": 8000,
      "content": "<|endoftext|>",
      "single_word": false,
      "lstrip": false,
      "rstrip": false,
      "normalized": true,
      "special": true
    }
  ],
  "normalizer": null,
  "pre_tokenizer": {
    "type": "ByteLevel",
    "add_prefix_space": false,
    "trim_offsets": true,
    "use_regex": true
  },
  "post_processor": {
    "type": "ByteLevel",
    "add_prefix_space": true,
    "trim_offsets": false,
    "use_regex": true
  },
  "decoder": {
    "type": "ByteLevel",
    "add_prefix_space": true,
    "trim_offsets": true,
    "use_regex": true
  },
  "model": {
    "type": "BPE",
    "dropout": null,
    "unk_token": null,
    "continuing_subword_prefix": "",
    "end_of_word_suffix": "",
    "fuse_unk": false,
    "byte_fallback": false,
    "ignore_merges": false,
    "vocab": {
      "<s>": 0,
      "<pad>": 1,
      "</s>": 2,
      "<unk>": 3,
      "<mask>": 4,
      "!": 5,
      "\"": 6,
      "#": 7,
      "$": 8,
      "%": 9,
      "&": 10,
      "'": 11,
      "(": 12,
      ")": 13,
      "*": 14,
      "+": 15,
      ",": 16,
      "-": 17,
      ".": 18,
      "/": 19,
      "0": 20,
      "1": 21,
      "2": 22,
      "3": 23,
      "4": 24,
      "5": 25,
      "6": 26,
      "7": 27,
      "8": 28,
      "9": 29,
      ":": 30,
      ";": 31,
      "<": 32,
      "=": 33,
      ">": 34,
      "?": 35,
      "@": 36,
      "A": 37,
      "B": 38,
      "C": 39,
      "D": 40,
      "E": 41,
      "F": 42,
      "G": 43,
      "H": 44,
      "I": 45,
      "J": 46,
      "K": 47,
      "L": 48,
      "M": 49,
      "N": 50,
      "O": 51,
      "P": 52,
      "Q": 53,
      "R": 54,
      "S": 55,
      "T": 56,
      "U": 57,
      "V": 58,
      "W": 59,
      "X": 60,
      "Y": 61,
      "Z": 62,
      "[": 63,
      "\\": 64,
      "]": 65,
      "^": 66,
      "_": 67,
      "`": 68,
      "a": 69,
      "b": 70,
      "c": 71,
      "d": 72,
      "e": 73,
      "f": 74,
      "g": 75,
      "h": 76,
      "i": 77,
      "j": 78,
      "k": 79,
      "l": 80,
      "m": 81,
      "n": 82,
      "o": 83,
      "p": 84,
      "q": 85,
      "r": 86,
      "s": 87,
      "t": 88,
      "u": 89,
      "v": 90,
      "w": 91,
      "x": 92,
      "y": 93,
      "z": 94,
      "{": 95,
      "|": 96,
      "}": 97,
      "~": 98,
      "¡": 99,
      "¢": 100,
      "£": 101,
      "¤": 102,
      "¥": 103,
      "¦": 104,
      "§": 105,
      "¨": 106,
      "©": 107,
      "ª": 108,
      "«": 109,
      "¬": 110,
      "®": 111,
      "¯": 112,
      "°": 113,
      "±": 114,
      "²": 115,
      "³": 116,
      "´": 117,
      "µ": 118,
      "¶": 119,
      "·": 120,
      "¸": 121,
      "¹": 122,
      "º": 123,
      "»": 124,
      "¼": 125,
      "½": 126,
      "¾": 127,
      "¿": 128,
      "À": 129,
      "Á": 130,
      "Â": 131,
      "Ã": 132,
      "Ä": 133,
      "Å": 134,
      "Æ": 135,
      "Ç": 136,
      "È": 137,
      "É": 138,
      "Ê": 139,
      "Ë": 140,
      "Ì": 141,
      "Í": 142,
      "Î": 143,
      "Ï": 144,
      "Ð": 145,
      "Ñ": 146,
      "Ò": 147,
      "Ó": 148,
      "Ô": 149,
      "Õ": 150,
      "Ö": 151,
      "×": 152,
      "Ø": 153,
      "Ù": 154,
      "Ú": 155,
      "Û": 156,
      "Ü": 157,
      "Ý": 158,
      "Þ": 159,
      "ß": 160,
      "à": 161,
      "á": 162,
      "â": 163,
      "ã": 164,
      "ä": 165,
      "å": 166,
      "æ": 167,
      "ç": 168,
      "è": 169,
      "é": 170,
      "ê": 171,
      "ë": 172,
      "ì": 173,
      "í": 174,
      "î": 175,
      "ï": 176,
      "ð": 177,
      "ñ": 178,
      "ò": 179,
      "ó": 180,
      "ô": 181,
      "õ": 182,
      "ö": 183,
      "÷": 184,
      "ø": 185,
      "ù": 186,
      "ú": 187,
      "û": 188,
      "ü": 189,
      "ý": 190,
      "þ": 191,
      "ÿ": 192,
      "Ā": 193,
      "ā": 194,
      "Ă": 195,
      "ă": 196,
      "Ą": 197,
      "ą": 198,
      "Ć": 199,
      "ć": 200,
      "Ĉ": 201,
      "ĉ": 202,
      "Ċ": 203,
      "ċ": 204,
      "Č": 205,
      "č": 206,
      "Ď": 207,
      "ď": 208,
      "Đ": 209,
      "đ": 210,
      "Ē": 211,
      "ē": 212,
      "Ĕ": 213,
      "ĕ": 214,
      "Ė": 215,
      "ė": 216,
      "Ę": 217,
      "ę": 218,
      "Ě": 219,
      "ě": 220,
      "Ĝ": 221,
      "ĝ": 222,
      "Ğ": 223,
      "ğ": 224,
      "Ġ": 225,
      "ġ": 226,
      "Ģ": 227,
      "ģ": 228,
      "Ĥ": 229,
      "ĥ": 230,
      "Ħ": 231,
      "ħ": 232,
      "Ĩ": 233,
      "ĩ": 234,
      "Ī": 235,
      "ī": 236,
      "Ĭ": 237,
      "ĭ": 238,
      "Į": 239,
      "į": 240,
      "İ": 241,
      "ı": 242,
      "Ĳ": 243,
      "ĳ": 244,
      "Ĵ": 245,
      "ĵ": 246,
      "Ķ": 247,
      "ķ": 248,
      "ĸ": 249,
      "Ĺ": 250,
      "ĺ": 251,
      "Ļ": 252,
      "ļ": 253,
      "Ľ": 254,
      "ľ": 255,
      "Ŀ": 256,
      "ŀ": 257,
      "Ł": 258,
      "ł": 259,
      "Ń": 260,
      "Ġt": 261,
      "he": 262,
      "Ġa": 263,
      "in": 264,
      "er": 265,
      "Ġthe": 266,
      "on": 267,
      "re": 268,
      "Ġo": 269,
      "an": 270,
      "at": 271,
      "en": 272,
      "Ġs": 273,
      "ed": 274,
      "is": 275,
      "or": 276,
      "es": 277,
      "Ġw": 278,
      "it": 279,
      "Ġc": 280,
      "al": 281,
      "Ġof": 282,
      "ar": 283,
      "Ġan": 284,
      "Ġin": 285,
      "Ġf": 286,
      "Ġp": 287,
      "Ġb": 288,
      "ic": 289,
      "Ġand": 290,
      "ing": 291,
      "ion": 292,
      "as": 293,
      "ro": 294,
      "Ġm": 295,
      "Ġto": 296,
      "Ġd": 297,
      "le": 298,
      "ou": 299,
      "Ġh": 300,
      "ĠÐ": 301,
      "ent": 302,
      "il": 303,
      "ĠS": 304,
      "ĠA": 305,
      "om": 306,
      "ĠT": 307,
      "ĠC": 308,
      "st": 309,
      "Ġre": 310,
      "el": 311,
      "ct": 312,
      "Ġ1": 313,
      "ol": 314,
      "Ġl": 315,
      "Ġe": 316,
      "Ġn": 317,
      "Ð¾": 318,
      "Ġth": 319,
      "am": 320,
      "Ġ(": 321,
      "us": 322,
      "et": 323,
      "ĠM": 324,
      "Ð°": 325,
      "ad": 326,
      "ation": 327,
      "ur": 328,
      "Ðµ": 329,
      "ly": 330,
      "iv": 331,
      "ch": 332,
      "id": 333,
      "ce": 334,
      "im": 335,
      "un": 336,
      "ĠB": 337,
      "ĠP": 338,
      "ig": 339,
      "ot": 340,
      "Ġis": 341,
      "ĠI": 342,
      "ut": 343,
      "Ġfor": 344,
      "Ġg": 345,
      "ÑĤ": 346,
      "ir": 347,
      "ers": 348,
      "Ġas": 349,
      "Ġbe": 350,
      "Ġon": 351,
      "Ġwas": 352,
      "ow": 353,
      "ist": 354,
      "ĠH": 355,
      "ĠThe": 356,
      "ra": 357,
      "ul": 358,
      "ith": 359,
      "em": 360,
      "Ð¸": 361,
      "her": 362,
      "ĠR": 363,
      "ter": 364,
      "Ġst": 365,
      "ay": 366,
      "Ġwith": 367,
      "ver": 368,
      "th": 369,
      "ĠG": 370,
      "ĠD": 371,
      "ĠL": 372,
      "ĠF": 373,
      "os": 374,
      "Ġby": 375,
      "Ġ2": 376,
      "Ġ19": 377,
      "and": 378,
      "Ġcon": 379,
      "ĠE": 380,
      "Ġal": 381,
      "Ġwh": 382,
      "Ð¾Ð": 383,
      "Ñģ": 384,
      "'s": 385,
      "Ġthat": 386,
      "um": 387,
      "ĠW": 388,
      "op": 389,
      "ĠN": 390,
      "ÑĢ": 391,
      "ag": 392,
      "âĢ": 393,
      "est": 394,
      "ri": 395,
      "rom": 396,
      "oun": 397,
      "od": 398,
      "ac": 399,
      "Ġpro": 400,
      "av": 401,
      "Ġde": 402,
      "Ð½": 403,
      "ĠJ": 404,
      "Ġ\"": 405,
      "Ġv": 406,
      "Ġor": 407,
      "res": 408,
      "ian": 409,
      "if": 410,
      "ity": 411,
      "ies": 412,
      "ain": 413,
      "Ġit": 414,
      "00": 415,
      "Ġcom": 416,
      "ate": 417,
      "Ġat": 418,
      "ab": 419,
      "âĢĵ": 420,
      "Ġfrom": 421,
      "Ġare": 422,
      "oc": 423,
      "Ġsu": 424,
      "pe": 425,
      "Ġhe": 426,
      "ort": 427,
      "Ġex": 428,
      "Ñĥ": 429,
      "qu": 430,
      "ud": 431,
      "ĠO": 432,
      "ich": 433,
      "Ð°Ð": 434,
      "art": 435,
      "se": 436,
      "ĠIn": 437,
      "ill": 438,
      "Ġse": 439,
      "ld": 440,
      "Ġr": 441,
      "ant": 442,
      "ĠU": 443,
      "ore": 444,
      "ew": 445,
      "ess": 446,
      "all": 447,
      "ia": 448,
      "ment": 449,
      "ber": 450,
      "ial": 451,
      "igh": 452,
      "ard": 453,
      "ap": 454,
      "Ġun": 455,
      "ated": 456,
      "ak": 457,
      "ical": 458,
      "Ġhis": 459,
      "ive": 460,
      "ere": 461,
      "og": 462,
      "ge": 463,
      "ĠK": 464,
      "ÐµÐ": 465,
      "ish": 466,
      "ary": 467,
      "end": 468,
      "ip": 469,
      "Ġwere": 470,
      "Ġch": 471,
      "ure": 472,
      "ction": 473,
      "up": 474,
      "Ġwhich": 475,
      "ine": 476,
      "gh": 477,
      "ast": 478,
      "ĠSt": 479,
      "ov": 480,
      "ther": 481,
      "ost": 482,
      "mer": 483,
      "ount": 484,
      "The": 485,
      "Ġus": 486,
      "ell": 487,
      "our": 488,
      "ĠĊ": 489,
      "Ġpl": 490,
      "cl": 491,
      "ran": 492,
      "ong": 493,
      "ord": 494,
      "Ġle": 495,
      "ear": 496,
      "ĠâĢĵ": 497,
      "pp": 498,
      "pt": 499,
      "ĠCh": 500,
      "ame": 501,
      "Ġk": 502,
      "ust": 503,
      "Ġnot": 504,
      "so": 505,
      "ave": 506,
      "Ġy": 507,
      "Ñı": 508,
      "rit": 509,
      "),": 510,
      "ub": 511,
      "ÑĮ": 512,
      "19": 513,
      "per": 514,
      "ire": 515,
      "ĠV": 516,
      "ome": 517,
      "ous": 518,
      "Ġ20": 519,
      "Ġsh": 520,
      "der": 521,
      "ight": 522,
      "Ð¸Ð": 523,
      "Ġcomp": 524,
      "Ñĭ": 525,
      "ect": 526,
      "iz": 527,
      "cc": 528,
      "ff": 529,
      "ition": 530,
      "ry": 531,
      "du": 532,
      "ĠÐ¿": 533,
      "Ġalso": 534,
      "Ġhad": 535,
      "ks": 536,
      "Ġcont": 537,
      "Ġar": 538,
      "ie": 539,
      "Ġint": 540,
      "ations": 541,
      "ign": 542,
      "age": 543,
      "ass": 544,
      "ult": 545,
      "ican": 546,
      "ence": 547,
      "ren": 548,
      "Ñĩ": 549,
      "man": 550,
      "Ġhave": 551,
      "fer": 552,
      "pl": 553,
      "ĠÐ²": 554,
      "ĠUn": 555,
      "ide": 556,
      "ib": 557,
      "ĠÐ½": 558,
      "Ġhas": 559,
      "ue": 560,
      "Ġad": 561,
      "ory": 562,
      "ĠÑģ": 563,
      "Ġ18": 564,
      "ens": 565,
      "Ġwhe": 566,
      "tern": 567,
      "ph": 568,
      "irst": 569,
      "ates": 570,
      "Ġcl": 571,
      "Ġits": 572,
      "ces": 573,
      "ally": 574,
      "Ġres": 575,
      "out": 576,
      "ater": 577,
      "Ðº": 578,
      "Ġab": 579,
      "Ġwor": 580,
      "Ġtheir": 581,
      "Ð»": 582,
      ").": 583,
      "Ġpart": 584,
      "own": 585,
      "ĠTh": 586,
      "ould": 587,
      "Ġbut": 588,
      "ru": 589,
      "Ġper": 590,
      "are": 591,
      "act": 592,
      "ang": 593,
      "over": 594,
      "Ġall": 595,
      "ice": 596,
      "ime": 597,
      "ree": 598,
      "clud": 599,
      "ond": 600,
      "ack": 601,
      "Ġother": 602,
      "Ġ200": 603,
      "land": 604,
      "In": 605,
      "Ġfirst": 606,
      "ress": 607,
      "ke": 608,
      "Ġim": 609,
      "ep": 610,
      "Ġman": 611,
      "Ġro": 612,
      "Ġthis": 613,
      "Ġdis": 614,
      "ict": 615,
      "hed": 616,
      "erv": 617,
      "Ġone": 618,
      "wo": 619,
      "Ġbec": 620,
      "fter": 621,
      "ely": 622,
      "und": 623,
      "Ġwho": 624,
      "ach": 625,
      "Ġcan": 626,
      "port": 627,
      "Ġ201": 628,
      "ational": 629,
      "ile": 630,
      "Ġj": 631,
      "Ġen": 632,
      "ions": 633,
      "ace": 634,
      "..": 635,
      "Ġinclud": 636,
      "te": 637,
      "ĠIt": 638,
      "ok": 639,
      "ubl": 640,
      "ĠAn": 641,
      "ited": 642,
      "ĠAmer": 643,
      "ec": 644,
      "able": 645,
      "Ġbeen": 646,
      "ugh": 647,
      "Ġ3": 648,
      "Ġte": 649,
      "ound": 650,
      "vel": 651,
      "Ġyear": 652,
      "ĠAl": 653,
      "orm": 654,
      "aw": 655,
      "ose": 656,
      "ors": 657,
      "ite": 658,
      "old": 659,
      "oll": 660,
      "ents": 661,
      "ced": 662,
      "we": 663,
      "Ġcomm": 664,
      "Ġrec": 665,
      "ne": 666,
      "Ð´": 667,
      "Ġsp": 668,
      "Ġpre": 669,
      "one": 670,
      "uring": 671,
      "Ġag": 672,
      "Ġsc": 673,
      "olog": 674,
      "ough": 675,
      "ĠHe": 676,
      "ade": 677,
      "Ġdes": 678,
      "ath": 679,
      "Ġsy": 680,
      "ÐµÑĤ": 681,
      "int": 682,
      "les": 683,
      "ark": 684,
      "ons": 685,
      "amp": 686,
      "Ġtwo": 687,
      "Ġcount": 688,
      "ÑĤÐ¾": 689,
      "Ġ-": 690,
      "ase": 691,
      "ob": 692,
      "Ġmore": 693,
      "ĠEn": 694,
      "Ð²": 695,
      "ied": 696,
      "Ġthey": 697,
      "ĠY": 698,
      "Ġinto": 699,
      "ĠAmerican": 700,
      "Ġover": 701,
      "ics": 702,
      "ÑĪ": 703,
      "ance": 704,
      "wn": 705,
      "Ġev": 706,
      "Ġne": 707,
      "Ġme": 708,
      "Ġcent": 709,
      "reat": 710,
      "Ġpr": 711,
      "Ġsuch": 712,
      "ĠĠ": 713,
      "aus": 714,
      "iss": 715,
      "Ġspe": 716,
      "ms": 717,
      "ĠAr": 718,
      "ĠÐº": 719,
      "Ġused": 720,
      "Ġout": 721,
      "ood": 722,
      "Ġmost": 723,
      "ans": 724,
      "Ġra": 725,
      "Ġcons": 726,
      "Ġele": 727,
      "ild": 728,
      "ivers": 729,
      "Âł": 730,
      "Ġind": 731,
      "ÐµÐ½": 732,
      "rans": 733,
      "Ġbet": 734,
      "Ġafter": 735,
      "ings": 736,
      "Ġrel": 737,
      "rib": 738,
      "ail": 739,
      "ased": 740,
      "ener": 741,
      "oy": 742,
      "ular": 743,
      "ury": 744,
      "Ġ199": 745,
      "Ġup": 746,
      "ts": 747,
      "Ġpe": 748,
      "Ġgro": 749,
      "ind": 750,
      "Ġact": 751,
      "ual": 752,
      "Ġpol": 753,
      "Ġplay": 754,
      "ism": 755,
      "ĠÐ¾": 756,
      "Ġunder": 757,
      "Ġ4": 758,
      "rough": 759,
      "Ġkn": 760,
      "Ġreg": 761,
      "ĠÐ´": 762,
      "ĠMar": 763,
      "ious": 764,
      "ft": 765,
      "Ġatt": 766,
      "uc": 767,
      "Ġthan": 768,
      "ĠÑĤ": 769,
      "Ġnew": 770,
      "Ñħ": 771,
      "20": 772,
      "ĠÐ¸": 773,
      "Ġtime": 774,
      "ĠÐ¼": 775,
      "Ġpop": 776,
      "Ġher": 777,
      "orn": 778,
      "Ġapp": 779,
      "ween": 780,
      "Ġprodu": 781,
      "ake": 782,
      "gan": 783,
      "ities": 784,
      "Ġwould": 785,
      "Ð¾Ð²": 786,
      "Ġoff": 787,
      "red": 788,
      "oth": 789,
      "ug": 790,
      "Ġform": 791,
      "Ġinc": 792,
      "ople": 793,
      "Ġtr": 794,
      "io": 795,
      "ron": 796,
      "Ġfil": 797,
      "Ġsome": 798,
      "ĠNew": 799,
      "urn": 800,
      "\".": 801,
      "ss": 802,
      "ÑģÑĤ": 803,
      "ident": 804,
      "stem": 805,
      "Ġwhen": 806,
      "Ġonly": 807,
      "oh": 808,
      "overn": 809,
      "ĠCom": 810,
      "Ġbetween": 811,
      "Ġsub": 812,
      "ick": 813,
      "ific": 814,
      "ward": 815,
      "Ġwe": 816,
      "Ð¸ÑĤ": 817,
      "ram": 818,
      "Ġear": 819,
      "Ġthere": 820,
      "Ġph": 821,
      "Ġso": 822,
      "iet": 823,
      "ÑĥÐ": 824,
      "Ġdo": 825,
      "ative": 826,
      "ember": 827,
      "ral": 828,
      "Ġacc": 829,
      "Ġinter": 830,
      "gl": 831,
      "ten": 832,
      "ys": 833,
      "form": 834,
      "ished": 835,
      "ince": 836,
      "ve": 837,
      "ĠThis": 838,
      "Ġlar": 839,
      "Ñİ": 840,
      "Ġnum": 841,
      "Ġ5": 842,
      "Ġpo": 843,
      "hen": 844,
      "ower": 845,
      "ĠDe": 846,
      "Ġqu": 847,
      "outh": 848,
      "cial": 849,
      "als": 850,
      "ton": 851,
      "ars": 852,
      "Ġpres": 853,
      "ever": 854,
      "Ð°Ð»": 855,
      "Ġyears": 856,
      "Ġco": 857,
      "Ġ198": 858,
      "way": 859,
      "Ġhim": 860,
      "Ġfl": 861,
      "eg": 862,
      "Ġtrans": 863,
      "hip": 864,
      "ution": 865,
      "erman": 866,
      "Ġter": 867,
      "Ġwork": 868,
      "ines": 869,
      "Ġpubl": 870,
      "li": 871,
      "Ġam": 872,
      "ists": 873,
      "Ġac": 874,
      "Ġcall": 875,
      "Ġ6": 876,
      "ÐµÑĢ": 877,
      "Ġcol": 878,
      "ern": 879,
      "ject": 880,
      "ĠUnited": 881,
      "Ġmod": 882,
      "Ġabout": 883,
      "orth": 884,
      "Ġass": 885,
      "Ġmay": 886,
      "ily": 887,
      "ĠCount": 888,
      "ins": 889,
      "Ð¾Ð»": 890,
      "ating": 891,
      "ah": 892,
      "Ġmany": 893,
      "Ġduring": 894,
      "Ġsec": 895,
      "18": 896,
      "Ġ197": 897,
      "ted": 898,
      "Ġtra": 899,
      "ale": 900,
      "Ġthrough": 901,
      "\",": 902,
      "ool": 903,
      "ork": 904,
      "velop": 905,
      "Ġsystem": 906,
      "Ġdef": 907,
      "Ġinv": 908,
      "cted": 909,
      "Ġrem": 910,
      "ĠSe": 911,
      "ric": 912,
      "ix": 913,
      "Ġloc": 914,
      "ollow": 915,
      "inal": 916,
      "Ġset": 917,
      "aj": 918,
      "tle": 919,
      "very": 920,
      "hes": 921,
      "ouse": 922,
      "Ġem": 923,
      "ife": 924,
      "Ġpeople": 925,
      "Ġsupp": 926,
      "Ġest": 927,
      "Ġbl": 928,
      "Ġserv": 929,
      "oss": 930,
      "con": 931,
      "Ġbo": 932,
      "ĠLe": 933,
      "Ġdif": 934,
      "tain": 935,
      "ll": 936,
      "Ġwhere": 937,
      "ause": 938,
      "ise": 939,
      "Ġ196": 940,
      "Ġthem": 941,
      "Ð¾Ð¼": 942,
      "ures": 943,
      "uro": 944,
      "ĠÐ±": 945,
      "Ġprov": 946,
      "ĠCon": 947,
      "ann": 948,
      "ames": 949,
      "Ġno": 950,
      "iel": 951,
      "Ġknown": 952,
      ".\"": 953,
      "Ġli": 954,
      "Ġchar": 955,
      "000": 956,
      "Ġgener": 957,
      "Ġgovern": 958,
      "ered": 959,
      "Ġmet": 960,
      "Ð°Ðº": 961,
      "ĠCounty": 962,
      "ĠSp": 963,
      "ĠGerman": 964,
      "Ġwrit": 965,
      "Ġuse": 966,
      "Ġfound": 967,
      "fore": 968,
      "Ð¾Ð´": 969,
      "ulation": 970,
      "cy": 971,
      "ĠStates": 972,
      "ient": 973,
      "cept": 974,
      "ÐµÐ»": 975,
      "ement": 976,
      "Ġmade": 977,
      "round": 978,
      "Ġdist": 979,
      "ock": 980,
      "the": 981,
      "ature": 982,
      "Ġdevelop": 983,
      "Ð°ÑĤ": 984,
      "its": 985,
      "raph": 986,
      "Ġob": 987,
      "iversity": 988,
      "Ġcity": 989,
      "ĠIs": 990,
      "ĠInd": 991,
      "az": 992,
      "ences": 993,
      "Ġinst": 994,
      "Ġagain": 995,
      "chool": 996,
      "ĠAs": 997,
      "ĠÑĩ": 998,
      "ex": 999,
      "Ġend": 1000,
      "Ġ17": 1001,
      "Ã©": 1002,
      "emb": 1003,
      "Ġmus": 1004,
      "Ġfe": 1005,
      "owever": 1006,
      "ision": 1007,
      "Ġfam": 1008,
      "ized": 1009,
      "fl": 1010,
      "Ġhist": 1011,
      "ments": 1012,
      "ology": 1013,
      "Ð¼": 1014,
      "ather": 1015,
      "Ġbu": 1016,
      "ohn": 1017,
      "Ġap": 1018,
      "ĠFran": 1019,
      "Ġincluding": 1020,
      "ĠBrit": 1021,
      "Ġfollow": 1022,
      "ually": 1023,
      "ĠWar": 1024,
      "Ġexp": 1025,
      "Ġsur": 1026,
      "uch": 1027,
      "ĠSc": 1028,
      "ctions": 1029,
      "Ġfilm": 1030,
      "Ġmov": 1031,
      "Ġdec": 1032,
      "ĠZ": 1033,
      "Ġlater": 1034,
      "Ġent": 1035,
      "ty": 1036,
      "Ġvar": 1037,
      "ural": 1038,
      "ĠÐ·": 1039,
      "Ġbeing": 1040,
      "cent": 1041,
      "Ġstud": 1042,
      "Ġimp": 1043,
      "ically": 1044,
      "Ġwell": 1045,
      "uss": 1046,
      "Ġadd": 1047,
      "ĠRe": 1048,
      "Ġthen": 1049,
      "iver": 1050,
      "Ġbecame": 1051,
      "other": 1052,
      "Ð¾ÑĢ": 1053,
      "ĠSh": 1054,
      "Ġrep": 1055,
      "Ġthese": 1056,
      "glish": 1057,
      "ax": 1058,
      "any": 1059,
      "Ġ7": 1060,
      "Ġany": 1061,
      "ined": 1062,
      "Ġthree": 1063,
      "Ġaut": 1064,
      "air": 1065,
      "Ġcap": 1066,
      "inn": 1067,
      "ĠÐ¿ÑĢ": 1068,
      "ĠÐ½Ð°": 1069,
      "Ġhigh": 1070,
      "elf": 1071,
      "abl": 1072,
      "Ð¾Ð³": 1073,
      "Ġsign": 1074,
      "Ġser": 1075,
      "oman": 1076,
      "Ġ8": 1077,
      "Ġcalled": 1078,
      "ĠPro": 1079,
      "Ġmed": 1080,
      "ck": 1081,
      "Ġed": 1082,
      "ived": 1083,
      "Ġboth": 1084,
      "...": 1085,
      "Ġwhile": 1086,
      "Ð¸Ð½": 1087,
      "ible": 1088,
      "Ġmain": 1089,
      "Ġpolit": 1090,
      "Ġext": 1091,
      "ajor": 1092,
      "Ġnumber": 1093,
      "imes": 1094,
      "inist": 1095,
      "ium": 1096,
      "ier": 1097,
      "Ġeff": 1098,
      "ĠJohn": 1099,
      "ays": 1100,
      "ians": 1101,
      "erson": 1102,
      "ield": 1103,
      "Ġdire": 1104,
      "Ġgroup": 1105,
      "rist": 1106,
      "Ġart": 1107,
      "Ġmon": 1108,
      "ĠÑĢ": 1109,
      "els": 1110,
      "Ġshe": 1111,
      "âĢĶ": 1112,
      "Ġstate": 1113,
      "Ġcentury": 1114,
      "ĠFor": 1115,
      "Ġ9": 1116,
      "Ġ194": 1117,
      "Ġlead": 1118,
      "urope": 1119,
      "angu": 1120,
      "ved": 1121,
      "ility": 1122,
      "Ġ15": 1123,
      "Ġ16": 1124,
      "Ġdiffer": 1125,
      "Ġbel": 1126,
      "Ġret": 1127,
      "Ġsm": 1128,
      "ina": 1129,
      "Ġorig": 1130,
      "iew": 1131,
      "Ð°Ð½": 1132,
      "ober": 1133,
      "to": 1134,
      "Ð¾Ð¹": 1135,
      "gest": 1136,
      "Ġcre": 1137,
      "ĠEnglish": 1138,
      "ages": 1139,
      "Ġsim": 1140,
      "eter": 1141,
      "ÑģÑı": 1142,
      "enn": 1143,
      "arri": 1144,
      "ash": 1145,
      "yp": 1146,
      "ives": 1147,
      "Ð¿": 1148,
      "Ġoper": 1149,
      "ĠCl": 1150,
      "Ð¸Ð»": 1151,
      "orld": 1152,
      "Ġworld": 1153,
      "rench": 1154,
      "Ġdep": 1155,
      "ful": 1156,
      "Ġsever": 1157,
      "Ġ10": 1158,
      "ues": 1159,
      "ĠCol": 1160,
      "Ġearly": 1161,
      "yn": 1162,
      "ley": 1163,
      "ÐµÐ¼": 1164,
      "Ġ195": 1165,
      "ograph": 1166,
      "ĠEurope": 1167,
      "eb": 1168,
      "Ġwill": 1169,
      "Ġconst": 1170,
      "Ġ.": 1171,
      "ants": 1172,
      "hem": 1173,
      "ĠAt": 1174,
      "Ġgovernment": 1175,
      "til": 1176,
      "vent": 1177,
      "ger": 1178,
      "Ġlong": 1179,
      "ute": 1180,
      "ting": 1181,
      "Ġappe": 1182,
      "Ġsing": 1183,
      "ĠUniversity": 1184,
      "Ġown": 1185,
      "ene": 1186,
      "osed": 1187,
      "cess": 1188,
      "ract": 1189,
      "arch": 1190,
      "Ġpopulation": 1191,
      "ris": 1192,
      "Ð½Ð¾": 1193,
      "pen": 1194,
      "Ġsecond": 1195,
      "ĠÐ½Ðµ": 1196,
      "Ġ'": 1197,
      "Ġspec": 1198,
      "Ġsame": 1199,
      "led": 1200,
      "Ð¾ÑĤ": 1201,
      "ording": 1202,
      "iving": 1203,
      "ĠKing": 1204,
      "ange": 1205,
      "aid": 1206,
      "my": 1207,
      "ĠQ": 1208,
      "ared": 1209,
      "Ġcontin": 1210,
      "ĠOn": 1211,
      "ional": 1212,
      "ank": 1213,
      "Ġname": 1214,
      "Ġsupport": 1215,
      "ik": 1216,
      "ital": 1217,
      "ven": 1218,
      "rop": 1219,
      "ĠPh": 1220,
      "Ġresult": 1221,
      "ĠII": 1222,
      "ÑĨ": 1223,
      "rid": 1224,
      "ired": 1225,
      "oot": 1226,
      "Ð°Ð¼": 1227,
      "Ġwar": 1228,
      "Ġocc": 1229,
      "Ġmajor": 1230,
      "Ð¾Ñģ": 1231,
      "Ġestabl": 1232,
      "ason": 1233,
      "Ġcomple": 1234,
      "Ġbefore": 1235,
      "ring": 1236,
      "ĠFrench": 1237,
      "Ġdisc": 1238,
      "atic": 1239,
      "Ġagainst": 1240,
      "Ġcould": 1241,
      "Ġcharact": 1242,
      "Ġarea": 1243,
      "iod": 1244,
      "Ġpartic": 1245,
      "rent": 1246,
      "Ġbro": 1247,
      "ilit": 1248,
      "ĠBl": 1249,
      "ĠComm": 1250,
      "ee": 1251,
      "Ġdesign": 1252,
      "urch": 1253,
      "gy": 1254,
      "ets": 1255,
      "ales": 1256,
      "Ġbecause": 1257,
      "Ġfour": 1258,
      "ĠCar": 1259,
      "Ġcounty": 1260,
      "osition": 1261,
      "Ġlangu": 1262,
      "ĠBritish": 1263,
      "illion": 1264,
      "Ġoften": 1265,
      "Ġdesc": 1266,
      "ctor": 1267,
      "ĠÐ³": 1268,
      "ull": 1269,
      "ĠWorld": 1270,
      "aking": 1271,
      "Ġdid": 1272,
      "Ġprog": 1273,
      "iam": 1274,
      "Ġ193": 1275,
      "though": 1276,
      "Ġseveral": 1277,
      "Ġair": 1278,
      "ices": 1279,
      "Ġshow": 1280,
      "Ġrele": 1281,
      "ĠEm": 1282,
      "Ġsince": 1283,
      "Ġsl": 1284,
      "ĠWh": 1285,
      "Ġpublic": 1286,
      "une": 1287,
      "Ġland": 1288,
      "Ð±": 1289,
      "son": 1290,
      "Ġcontro": 1291,
      "conom": 1292,
      "inc": 1293,
      "ĠPr": 1294,
      "for": 1295,
      "ccess": 1296,
      "ball": 1297,
      "Ġif": 1298,
      "hor": 1299,
      "ica": 1300,
      "chn": 1301,
      "ey": 1302,
      "Ġlaw": 1303,
      "ret": 1304,
      "au": 1305,
      "Ġuntil": 1306,
      "ius": 1307,
      "xt": 1308,
      "ross": 1309,
      "Ġincre": 1310,
      "ĠAd": 1311,
      "Ġpower": 1312,
      "Ġconsid": 1313,
      "ĠAust": 1314,
      "ĠOr": 1315,
      "Ġeach": 1316,
      "ĠAf": 1317,
      "ged": 1318,
      "ided": 1319,
      "Ġsmall": 1320,
      "ĠChrist": 1321,
      "Ġseries": 1322,
      "Ð¸Ðº": 1323,
      "ternational": 1324,
      "Ġsoc": 1325,
      "rad": 1326,
      "amed": 1327,
      "Ġ$": 1328,
      "Ġremain": 1329,
      "ĠAp": 1330,
      "ĠCan": 1331,
      "ĠÑĥ": 1332,
      "ink": 1333,
      "por": 1334,
      "ĠNational": 1335,
      "Ġcommon": 1336,
      "Ġequ": 1337,
      "ued": 1338,
      "ience": 1339,
      "Ġrecord": 1340,
      "ample": 1341,
      "Ġpar": 1342,
      "ised": 1343,
      "Ġmusic": 1344,
      "cer": 1345,
      "Ġorgan": 1346,
      "omet": 1347,
      "Ġins": 1348,
      "ble": 1349,
      "Ġ12": 1350,
      "Ġthose": 1351,
      "Ġleg": 1352,
      "ission": 1353,
      "Ġage": 1354,
      "Ð°ÐµÑĤ": 1355,
      "ird": 1356,
      "Ġoffic": 1357,
      "Ġback": 1358,
      "Ñī": 1359,
      "10": 1360,
      "ator": 1361,
      "Ġhum": 1362,
      "Ð°Ð·": 1363,
      "Ð¾Ð½": 1364,
      "Ġmat": 1365,
      "ĠPl": 1366,
      "17": 1367,
      "ĠPar": 1368,
      "rict": 1369,
      "Ġtrad": 1370,
      "Ġpoint": 1371,
      "Ġcommun": 1372,
      "yl": 1373,
      "ook": 1374,
      "Ġdeath": 1375,
      "Ġdifferent": 1376,
      "Ġ,": 1377,
      "omen": 1378,
      "ĠMay": 1379,
      "ively": 1380,
      "Ġref": 1381,
      "Ġnear": 1382,
      "ĠPol": 1383,
      "ĠGe": 1384,
      "Ġrefer": 1385,
      "ruct": 1386,
      "ĠJan": 1387,
      "ize": 1388,
      "Ġvers": 1389,
      "Ġlarge": 1390,
      "Ġrequ": 1391,
      "resent": 1392,
      "ove": 1393,
      "Ġcur": 1394,
      "Ġyou": 1395,
      "rodu": 1396,
      "Ġclass": 1397,
      "ization": 1398,
      "Ġinclude": 1399,
      "Ġchild": 1400,
      "Ġgu": 1401,
      "Ġrev": 1402,
      "Ġperiod": 1403,
      "Ġmin": 1404,
      "Ġlife": 1405,
      "pect": 1406,
      "Re": 1407,
      "rand": 1408,
      "med": 1409,
      "ĠYork": 1410,
      "omin": 1411,
      "ides": 1412,
      "Ð°ÑĢ": 1413,
      "ĠHowever": 1414,
      "Ġlike": 1415,
      "200": 1416,
      "ĠRep": 1417,
      "Wh": 1418,
      "oci": 1419,
      "Ġsuccess": 1420,
      "aim": 1421,
      "lect": 1422,
      "Ġfun": 1423,
      "Ġcar": 1424,
      "ĠÐµ": 1425,
      "ified": 1426,
      "Ġhouse": 1427,
      "ĠSouth": 1428,
      "ony": 1429,
      "Ġallow": 1430,
      "Ġaround": 1431,
      "Ġfin": 1432,
      "ries": 1433,
      "ai": 1434,
      "embers": 1435,
      "Ġeffect": 1436,
      "ĠWill": 1437,
      "ont": 1438,
      "olution": 1439,
      "Ġ14": 1440,
      "Ġpass": 1441,
      "ĠNorth": 1442,
      "Ð°Ð²": 1443,
      "ternal": 1444,
      "ĠUS": 1445,
      "Ġexample": 1446,
      "Ġcult": 1447,
      "Ð°Ñģ": 1448,
      "Ġright": 1449,
      "ases": 1450,
      "Ġcor": 1451,
      "Ġann": 1452,
      "get": 1453,
      "ĠCent": 1454,
      "ival": 1455,
      "Ġnon": 1456,
      "ended": 1457,
      "Ġperson": 1458,
      "Ġimport": 1459,
      "Ġbased": 1460,
      "ÐµÐ´": 1461,
      "Ġlit": 1462,
      "ilitary": 1463,
      "16": 1464,
      "Ġprogram": 1465,
      "Ġfamily": 1466,
      "amb": 1467,
      "reen": 1468,
      "com": 1469,
      "ole": 1470,
      "Ġschool": 1471,
      "ĠJu": 1472,
      "ode": 1473,
      "ĠEd": 1474,
      "ple": 1475,
      "ĠÑ": 1476,
      "ĠMus": 1477,
      "iven": 1478,
      "Ġrece": 1479,
      "by": 1480,
      "ae": 1481,
      "uary": 1482,
      "Ġopen": 1483,
      "ĠRoman": 1484,
      "Ġold": 1485,
      "Ġline": 1486,
      "Ġinfl": 1487,
      "Ġthough": 1488,
      "ĠThey": 1489,
      "ats": 1490,
      "Ġbegan": 1491,
      "apan": 1492,
      "ration": 1493,
      "Ġeconom": 1494,
      "oint": 1495,
      "15": 1496,
      "iety": 1497,
      "ox": 1498,
      "ugust": 1499,
      "Ġposs": 1500,
      "ner": 1501,
      "Ġteam": 1502,
      "Ġwithin": 1503,
      "Ġelect": 1504,
      "eng": 1505,
      "sc": 1506,
      "ently": 1507,
      "Ġval": 1508,
      "199": 1509,
      "ille": 1510,
      "row": 1511,
      "Ġstand": 1512,
      "isc": 1513,
      "attle": 1514,
      "Ġappro": 1515,
      "Ġgo": 1516,
      "ese": 1517,
      "oph": 1518,
      "que": 1519,
      "Ġwater": 1520,
      "Ġprocess": 1521,
      "Ġ13": 1522,
      "ĠÐ¶": 1523,
      "ĠAm": 1524,
      "Ġdem": 1525,
      "Ġorder": 1526,
      "ĠX": 1527,
      "ĠÐ»": 1528,
      "Ġrest": 1529,
      "ately": 1530,
      "Ġmy": 1531,
      "Ġeven": 1532,
      "Ġmark": 1533,
      "Ġnow": 1534,
      "aving": 1535,
      "Ġeng": 1536,
      "ĠItal": 1537,
      "Ġrun": 1538,
      "Ġexpl": 1539,
      "Ð·": 1540,
      "Ġdr": 1541,
      "ĠNov": 1542,
      "Ð¸Ð²": 1543,
      "Ġcountry": 1544,
      "Ġterm": 1545,
      "ĠÑĩÑĤÐ¾": 1546,
      "Ġav": 1547,
      "Ġdescrib": 1548,
      "Ġstr": 1549,
      "Ġstart": 1550,
      "Ġfollowing": 1551,
      "par": 1552,
      "ril": 1553,
      "Ġmuch": 1554,
      "Ġwhat": 1555,
      "Ġalong": 1556,
      "read": 1557,
      "Ġadv": 1558,
      "Ġdiv": 1559,
      "urther": 1560,
      "ĠÐ°": 1561,
      "ata": 1562,
      "Ð³": 1563,
      "ondon": 1564,
      "Ġauthor": 1565,
      "ĠBe": 1566,
      "ilar": 1567,
      "ĠAugust": 1568,
      "estern": 1569,
      "Ġcharacter": 1570,
      "Ġevery": 1571,
      "Ġpresent": 1572,
      "ĠMan": 1573,
      "Ġprop": 1574,
      "af": 1575,
      "ency": 1576,
      "ott": 1577,
      "ĠAb": 1578,
      "mber": 1579,
      "ald": 1580,
      "Ġhistor": 1581,
      "Ð°ÑĤÑĮ": 1582,
      "alth": 1583,
      "akes": 1584,
      "Ġmembers": 1585,
      "ality": 1586,
      "Ġhead": 1587,
      "Ġopp": 1588,
      "Ġreturn": 1589,
      "ript": 1590,
      "aced": 1591,
      "day": 1592,
      "ferences": 1593,
      "Ġlast": 1594,
      "ves": 1595,
      "sh": 1596,
      "Ġmake": 1597,
      "Ġ192": 1598,
      "Ġusing": 1599,
      "Ġdue": 1600,
      "ness": 1601,
      "Ġprom": 1602,
      "Ġcrit": 1603,
      "ĠHar": 1604,
      "ĠGu": 1605,
      "tal": 1606,
      "Ġdown": 1607,
      "Ġexper": 1608,
      "Ġrad": 1609,
      "ĠChar": 1610,
      "Ġfre": 1611,
      "ories": 1612,
      "ele": 1613,
      "ptember": 1614,
      "Ġbuild": 1615,
      "ĠJapan": 1616,
      "ĠOct": 1617,
      "epend": 1618,
      "Ð¹": 1619,
      "Ġamong": 1620,
      "Ġstill": 1621,
      "ially": 1622,
      "Ġcour": 1623,
      "ilt": 1624,
      "dom": 1625,
      "ĠHis": 1626,
      "Ġfact": 1627,
      "Ġvery": 1628,
      "Ġword": 1629,
      "Ġtechn": 1630,
      "Ġtradition": 1631,
      "ĠLondon": 1632,
      "Ð½Ñĭ": 1633,
      "ĠEng": 1634,
      "ĠRuss": 1635,
      "cember": 1636,
      "ody": 1637,
      "ster": 1638,
      "ane": 1639,
      "ĠJanuary": 1640,
      "idd": 1641,
      "Ġplace": 1642,
      "Ġhistory": 1643,
      "ĠGree": 1644,
      "ĠMarch": 1645,
      "Ġresp": 1646,
      "Ġformer": 1647,
      "Ġreport": 1648,
      "Ġ0": 1649,
      "ament": 1650,
      "ains": 1651,
      "ĠWilliam": 1652,
      "me": 1653,
      "Ġhand": 1654,
      "ÑĥÐ¶": 1655,
      "Ġpopular": 1656,
      "urg": 1657,
      "ublic": 1658,
      "Ex": 1659,
      "raft": 1660,
      "Ġbelie": 1661,
      "ĠThere": 1662,
      "vers": 1663,
      "ĠJune": 1664,
      "ĠGeor": 1665,
      "12": 1666,
      "Ġjust": 1667,
      "rew": 1668,
      "Ġread": 1669,
      "Ġtown": 1670,
      "Ġsaid": 1671,
      "ards": 1672,
      "ense": 1673,
      "ivil": 1674,
      "ior": 1675,
      "Ġport": 1676,
      "Ġstat": 1677,
      "lands": 1678,
      "ĠJuly": 1679,
      "Ġinflu": 1680,
      "Ġtele": 1681,
      "Ġhome": 1682,
      "ÑģÐº": 1683,
      "ĠSeptember": 1684,
      "Ġprot": 1685,
      "arm": 1686,
      "Ġtem": 1687,
      "cil": 1688,
      "ĠOctober": 1689,
      "ĠCanad": 1690,
      "Ġgeneral": 1691,
      "ti": 1692,
      "Ġtyp": 1693,
      "Ġpolitical": 1694,
      "eder": 1695,
      "Ġled": 1696,
      "Ġgame": 1697,
      "ze": 1698,
      "Ġlanguage": 1699,
      "tic": 1700,
      "Ð¾Ð±": 1701,
      "References": 1702,
      "inks": 1703,
      "Ġestablished": 1704,
      "Ġnational": 1705,
      "Ġmodern": 1706,
      "che": 1707,
      "line": 1708,
      "14": 1709,
      "Ġes": 1710,
      "Ġpat": 1711,
      "ĠWest": 1712,
      "ĠAll": 1713,
      "Ġnamed": 1714,
      "ĠCal": 1715,
      "50": 1716,
      "An": 1717,
      "ĠBar": 1718,
      "wards": 1719,
      "Ġshort": 1720,
      "Ġbus": 1721,
      "ĠDecember": 1722,
      "ges": 1723,
      "Ġmilitary": 1724,
      "Ġday": 1725,
      "ĠBy": 1726,
      "ĠThese": 1727,
      "ument": 1728,
      "istory": 1729,
      "ological": 1730,
      "vision": 1731,
      "ino": 1732,
      "irc": 1733,
      "ĠAustral": 1734,
      "aster": 1735,
      "Ġcr": 1736,
      "agn": 1737,
      "ĠĠĠĠ": 1738,
      "Ġgreat": 1739,
      "Ġlocal": 1740,
      "Ġpublished": 1741,
      "ths": 1742,
      "ography": 1743,
      "ĠApril": 1744,
      "ek": 1745,
      "ĠÐŁ": 1746,
      "Ġhel": 1747,
      "Ð°Ð´": 1748,
      "ung": 1749,
      "ĠSw": 1750,
      "198": 1751,
      "Ġaddition": 1752,
      "uted": 1753,
      "Ġgl": 1754,
      "hod": 1755,
      "ĠCity": 1756,
      "Ġcamp": 1757,
      "Ġfem": 1758,
      "aces": 1759,
      "ĠÐĿ": 1760,
      "Ġbas": 1761,
      "Ġvis": 1762,
      "ray": 1763,
      "urs": 1764,
      "ĠNovember": 1765,
      "ĠBro": 1766,
      "Ġrepresent": 1767,
      "Ġvot": 1768,
      "iness": 1769,
      "augh": 1770,
      "Ġcolle": 1771,
      "Ġanother": 1772,
      "yd": 1773,
      "Ġcontrol": 1774,
      "Ð»Ð¸": 1775,
      "Ġel": 1776,
      "Ġhig": 1777,
      "ĠSchool": 1778,
      "ĠPres": 1779,
      "Ð¸Ð¼": 1780,
      "Ġbeg": 1781,
      "cing": 1782,
      "Ġkill": 1783,
      "Ġsk": 1784,
      "ones": 1785,
      "Ġless": 1786,
      "ĠEx": 1787,
      "ert": 1788,
      "empt": 1789,
      "Ġnorth": 1790,
      "Ġ&": 1791,
      "ĠÐĴ": 1792,
      "stit": 1793,
      "bum": 1794,
      "ured": 1795,
      "Ġclaim": 1796,
      "Ġaff": 1797,
      "Ġconsidered": 1798,
      "Ð¾Ñĩ": 1799,
      "ĠState": 1800,
      "aul": 1801,
      "Ġtri": 1802,
      "ham": 1803,
      "Ð¾Ðº": 1804,
      "13": 1805,
      "Ġsimilar": 1806,
      "Ð°Ñı": 1807,
      "Ġparticular": 1808,
      "ĠFl": 1809,
      "Ġadm": 1810,
      "ÐµÐ³": 1811,
      "ford": 1812,
      "ĠShe": 1813,
      "bs": 1814,
      "ead": 1815,
      "Ġfore": 1816,
      "lear": 1817,
      "ivid": 1818,
      "Ġtook": 1819,
      "ouncil": 1820,
      "ĠRiver": 1821,
      "ĠÑį": 1822,
      "ague": 1823,
      "ĠÐ²Ñĭ": 1824,
      "Ġlevel": 1825,
      "Ġleft": 1826,
      "ipp": 1827,
      "ccording": 1828,
      "Ġincluded": 1829,
      "Ġla": 1830,
      "Ġlate": 1831,
      "ebru": 1832,
      "ĠHer": 1833,
      "ĠAfter": 1834,
      "Ġiss": 1835,
      "ebruary": 1836,
      "ters": 1837,
      "ĠFrance": 1838,
      "'t": 1839,
      "Ġhuman": 1840,
      "Ġrepl": 1841,
      "ler": 1842,
      "Ġinf": 1843,
      "Ð¾Ð¶": 1844,
      "ney": 1845,
      "Ġer": 1846,
      "Ġorigin": 1847,
      "Ġimportant": 1848,
      ".,": 1849,
      "Ġheld": 1850,
      "ĠPart": 1851,
      "Ġconf": 1852,
      "Ġband": 1853,
      "hold": 1854,
      "Ġlinks": 1855,
      "Ġdoes": 1856,
      "oo": 1857,
      "Ġbecome": 1858,
      "ym": 1859,
      "rote": 1860,
      "Ġarch": 1861,
      "ination": 1862,
      "Ġintrodu": 1863,
      "Ġtit": 1864,
      "ining": 1865,
      "Ġway": 1866,
      "Ġphys": 1867,
      "Ġgiven": 1868,
      "ither": 1869,
      "Ġi": 1870,
      "ĠEl": 1871,
      "Ġmarri": 1872,
      "ĠÑı": 1873,
      "here": 1874,
      "Ġlim": 1875,
      "Ġreleased": 1876,
      "Ġident": 1877,
      "Ġevent": 1878,
      "Ġfoot": 1879,
      "ĠEar": 1880,
      "anish": 1881,
      "Ġchildren": 1882,
      "Ġwithout": 1883,
      "ĠAir": 1884,
      "Ġprof": 1885,
      "ÐµÐ¹": 1886,
      "alf": 1887,
      "Ġep": 1888,
      "Ġdirect": 1889,
      "Ġide": 1890,
      "ĠAss": 1891,
      "Ġstates": 1892,
      "adem": 1893,
      "Ġdevelopment": 1894,
      "ling": 1895,
      "ĠAnd": 1896,
      "Ġsol": 1897,
      "197": 1898,
      "less": 1899,
      "Ġoriginal": 1900,
      "Ch": 1901,
      "Ġneed": 1902,
      "Ġfield": 1903,
      "Ġsingle": 1904,
      "ploy": 1905,
      "ison": 1906,
      "Ġchang": 1907,
      "Ġnov": 1908,
      "ĠFebruary": 1909,
      "Ġ11": 1910,
      "Ġsong": 1911,
      "Ġplayer": 1912,
      "Ġsug": 1913,
      "let": 1914,
      "iron": 1915,
      "Ġfew": 1916,
      "On": 1917,
      "ruction": 1918,
      "val": 1919,
      "itions": 1920,
      "ividual": 1921,
      "ĠSec": 1922,
      "side": 1923,
      "ĠEuropean": 1924,
      "ps": 1925,
      "Ġsouth": 1926,
      "ored": 1927,
      "hern": 1928,
      "Ġsomet": 1929,
      "Ġprim": 1930,
      "Ġrelig": 1931,
      "Ġpract": 1932,
      "Ġaver": 1933,
      "Ġbook": 1934,
      "lic": 1935,
      "pire": 1936,
      "ably": 1937,
      "Ġseason": 1938,
      "Ġvol": 1939,
      "Ġcaus": 1940,
      "ridge": 1941,
      "Ã¡": 1942,
      "Ġareas": 1943,
      "ĠÐ¾ÑĤ": 1944,
      "Ġmen": 1945,
      "ÐºÐ°": 1946,
      "Ġmult": 1947,
      "ogn": 1948,
      "pecial": 1949,
      "Ġvarious": 1950,
      "ends": 1951,
      "ĠPhil": 1952,
      "iction": 1953,
      "ĠEngland": 1954,
      "Ġsour": 1955,
      "Th": 1956,
      "21": 1957,
      "ning": 1958,
      "Ġcomb": 1959,
      "Ġpost": 1960,
      "Ġwomen": 1961,
      "Ġalbum": 1962,
      "Ġrul": 1963,
      "astern": 1964,
      "Ġinvol": 1965,
      "ops": 1966,
      "Ġindust": 1967,
      "born": 1968,
      "ean": 1969,
      "ering": 1970,
      "Ġson": 1971,
      "Ġdecl": 1972,
      "yle": 1973,
      "St": 1974,
      "Ġrole": 1975,
      "ĠMc": 1976,
      "formation": 1977,
      "Ġlist": 1978,
      "ches": 1979,
      "Ġturn": 1980,
      "Ġfive": 1981,
      "ape": 1982,
      "ffic": 1983,
      "Ġview": 1984,
      "Ġ25": 1985,
      "app": 1986,
      "merican": 1987,
      "ope": 1988,
      "inning": 1989,
      "Ġking": 1990,
      "Ġgen": 1991,
      "alk": 1992,
      "Ġwon": 1993,
      "ites": 1994,
      "work": 1995,
      "ĠDav": 1996,
      "orthern": 1997,
      "ways": 1998,
      "Ġbuilt": 1999,
      "ician": 2000,
      "Ġexist": 2001,
      "Ġactiv": 2002,
      "ÐµÐ²": 2003,
      "osp": 2004,
      "ensus": 2005,
      "ype": 2006,
      "Ġsocial": 2007,
      "most": 2008,
      "Ġcer": 2009,
      "Ġtop": 2010,
      "Ġwrote": 2011,
      "Ġdel": 2012,
      "Ġreal": 2013,
      "Ġsym": 2014,
      "See": 2015,
      "ows": 2016,
      "istic": 2017,
      "rican": 2018,
      "Ġmillion": 2019,
      "ĠComp": 2020,
      "Ġstruct": 2021,
      "Ġposition": 2022,
      "ots": 2023,
      "Ġcond": 2024,
      "Ġdeveloped": 2025,
      "ĠPark": 2026,
      "Ġsix": 2027,
      "Ġlargest": 2028,
      "Ġindividual": 2029,
      "olic": 2030,
      "Ġhowever": 2031,
      "imate": 2032,
      "Ġregion": 2033,
      "ĠCo": 2034,
      "Ġlight": 2035,
      "att": 2036,
      "ĠBC": 2037,
      "Ġpain": 2038,
      "self": 2039,
      "ÑĥÑĤ": 2040,
      "Ð´Ð°": 2041,
      "Ġlow": 2042,
      "atural": 2043,
      "Ġ190": 2044,
      "ected": 2045,
      "eneral": 2046,
      "Ġattempt": 2047,
      "eth": 2048,
      "Ġinit": 2049,
      "ibr": 2050,
      "uck": 2051,
      "Ġshould": 2052,
      "American": 2053,
      "lex": 2054,
      "Ġversion": 2055,
      "Ġcare": 2056,
      "ÑĢÐ°": 2057,
      "Ġproduction": 2058,
      "External": 2059,
      "ĠHigh": 2060,
      "ule": 2061,
      "?-": 2062,
      "vious": 2063,
      "Ġgrow": 2064,
      "ention": 2065,
      "ĠÐ¿Ð¾": 2066,
      "rag": 2067,
      "oon": 2068,
      "ĠChurch": 2069,
      "Ġ30": 2070,
      "Ġcreated": 2071,
      "Ġassoci": 2072,
      "thern": 2073,
      "umb": 2074,
      "Ġbre": 2075,
      "Ġdev": 2076,
      "Ġaverage": 2077,
      "Ġcountries": 2078,
      "Ġcurrent": 2079,
      "Ġpresident": 2080,
      "Ġsold": 2081,
      "Ġarg": 2082,
      "Ġdet": 2083,
      "ocr": 2084,
      "sp": 2085,
      "omb": 2086,
      "Ġredu": 2087,
      "co": 2088,
      "Ġindepend": 2089,
      "reg": 2090,
      "ĠEast": 2091,
      "Ġcal": 2092,
      "Ġusually": 2093,
      "acy": 2094,
      "Ġrelations": 2095,
      "Ġalthough": 2096,
      "Ġ2010": 2097,
      "196": 2098,
      "ÐµÐº": 2099,
      "Ġperform": 2100,
      "ĠGreek": 2101,
      "Ġsw": 2102,
      "iation": 2103,
      "Ð¾Ð»ÑĮ": 2104,
      "de": 2105,
      "Ġlocated": 2106,
      "Ġproper": 2107,
      "ĠMed": 2108,
      "Ġtimes": 2109,
      "ability": 2110,
      "ĠÐĲ": 2111,
      "ÑıÑĤ": 2112,
      "ificant": 2113,
      "ington": 2114,
      "Ġhelp": 2115,
      "ĠUnion": 2116,
      "ĠLat": 2117,
      "idence": 2118,
      "Ġtotal": 2119,
      "uter": 2120,
      "itive": 2121,
      "Ġeduc": 2122,
      "ential": 2123,
      "sequ": 2124,
      "ĠPresident": 2125,
      "Ġtake": 2126,
      "Ġspace": 2127,
      "inister": 2128,
      "abor": 2129,
      "Ġcase": 2130,
      "outhern": 2131,
      "Ġz": 2132,
      "ĠSup": 2133,
      "of": 2134,
      "Ġ100": 2135,
      "Ġcame": 2136,
      "rated": 2137,
      "Ġmar": 2138,
      "century": 2139,
      "Ġliving": 2140,
      "Ð¾Ð³Ð¾": 2141,
      "ban": 2142,
      "ained": 2143,
      "Ġlet": 2144,
      "Ġbeh": 2145,
      "bert": 2146,
      "ĠHol": 2147,
      "Ġhaving": 2148,
      "ĠBer": 2149,
      "ĠMon": 2150,
      "11": 2151,
      "ĠAmerica": 2152,
      "Ġbi": 2153,
      "Ġmater": 2154,
      "ids": 2155,
      "Ġsystems": 2156,
      "Ġdest": 2157,
      "etic": 2158,
      "Ġappear": 2159,
      "avy": 2160,
      "Ġworks": 2161,
      "Ġmanag": 2162,
      "Ġ189": 2163,
      "ĠChristian": 2164,
      "oad": 2165,
      "Ġspecies": 2166,
      "30": 2167,
      "Ġrese": 2168,
      "aken": 2169,
      "Ġ24": 2170,
      "Ġnet": 2171,
      "Ð°Ñİ": 2172,
      "iol": 2173,
      "Ġwritten": 2174,
      "Ġmean": 2175,
      "Ġspecial": 2176,
      "ĠColle": 2177,
      "gen": 2178,
      "ĠPal": 2179,
      "ched": 2180,
      "ana": 2181,
      "acks": 2182,
      "II": 2183,
      "ief": 2184,
      "ĠJew": 2185,
      "ĠHen": 2186,
      "ĠCor": 2187,
      "Ġmust": 2188,
      "ification": 2189,
      "Ġreceived": 2190,
      "ĠInternational": 2191,
      "Ġofficial": 2192,
      "ÐµÑģ": 2193,
      "Ġmethod": 2194,
      "Ġsent": 2195,
      "atures": 2196,
      "inese": 2197,
      "mit": 2198,
      "Ð¸ÑĤÑĮ": 2199,
      "Ġsuggest": 2200,
      "Ġtest": 2201,
      "Ġsignificant": 2202,
      "ama": 2203,
      "wh": 2204,
      "eum": 2205,
      "oviet": 2206,
      "Ġproduced": 2207,
      "Ġhow": 2208,
      "ĠHouse": 2209,
      "Ġservice": 2210,
      "iddle": 2211,
      "sy": 2212,
      "Ġgroups": 2213,
      "ĠLa": 2214,
      "Ġthird": 2215,
      "ĠGermany": 2216,
      "ville": 2217,
      "lin": 2218,
      "Ġbest": 2219,
      "ĠÑħ": 2220,
      "ĠIndian": 2221,
      "Ġplayed": 2222,
      "Ġproject": 2223,
      "ery": 2224,
      "Ġmass": 2225,
      "Ġfunction": 2226,
      "ump": 2227,
      "ĠÐĶ": 2228,
      "Ġsepar": 2229,
      "ĠPe": 2230,
      "Ġmeas": 2231,
      "ĠPort": 2232,
      "Ġproble": 2233,
      "ĠRober": 2234,
      "ĠSoc": 2235,
      "Ġanc": 2236,
      "Ġbody": 2237,
      "Ġcirc": 2238,
      "Ġnever": 2239,
      "Ġforces": 2240,
      "ara": 2241,
      "oyal": 2242,
      "rab": 2243,
      "Ġcompany": 2244,
      "ĠLou": 2245,
      "Ġanim": 2246,
      "ude": 2247,
      "ÐµÐ±": 2248,
      "used": 2249,
      "As": 2250,
      "ĠNor": 2251,
      "Ġsum": 2252,
      "uel": 2253,
      "ware": 2254,
      "Ġproduct": 2255,
      "Ġtreat": 2256,
      "Ġhousehold": 2257,
      "Ġren": 2258,
      "ances": 2259,
      "rian": 2260,
      "ĠPer": 2261,
      "Ġtheory": 2262,
      "ĠPress": 2263,
      "Ġdescribed": 2264,
      "rap": 2265,
      "utes": 2266,
      "ĠÐºÐ°Ðº": 2267,
      "ators": 2268,
      "ĠChina": 2269,
      "Un": 2270,
      "ergy": 2271,
      "Ġjo": 2272,
      "ander": 2273,
      "ĠReg": 2274,
      "ĠSch": 2275,
      "ma": 2276,
      "Ġtw": 2277,
      "Ġtelevision": 2278,
      "ush": 2279,
      "Ġke": 2280,
      "arian": 2281,
      "Ð¸Ðµ": 2282,
      "ĠRes": 2283,
      "Ġfurther": 2284,
      "istor": 2285,
      "Ġgames": 2286,
      "Ġfather": 2287,
      "Ġ2000": 2288,
      "Ġanal": 2289,
      "ĠGl": 2290,
      "Ġothers": 2291,
      "ĠOne": 2292,
      "Ġengine": 2293,
      "Ġstrong": 2294,
      "ÑĤÐ¾ÑĢ": 2295,
      "ĠÑģÑĤ": 2296,
      "Ġmaterial": 2297,
      "ĠGeorge": 2298,
      "ĠJames": 2299,
      "ĠRich": 2300,
      "ourn": 2301,
      "ĠTr": 2302,
      "Ġgood": 2303,
      "Ġder": 2304,
      "Ġfilms": 2305,
      "Ġobs": 2306,
      "ĠNe": 2307,
      "uf": 2308,
      "ĠAfrican": 2309,
      "ĠÐ¡": 2310,
      "rain": 2311,
      "Ġobject": 2312,
      "iber": 2313,
      "ĠSome": 2314,
      "Ġmot": 2315,
      "uk": 2316,
      "Ġdied": 2317,
      "ending": 2318,
      "ĠAct": 2319,
      "ĠDem": 2320,
      "aries": 2321,
      "ĠWhen": 2322,
      "rant": 2323,
      "na": 2324,
      "Ġfrequ": 2325,
      "ples": 2326,
      "overed": 2327,
      "Ġeither": 2328,
      "Ġpress": 2329,
      "alt": 2330,
      "40": 2331,
      "Ġstudy": 2332,
      "Ġbusiness": 2333,
      "ÐµÐ·": 2334,
      "Ġstory": 2335,
      "ĠÐ±Ñĭ": 2336,
      "ĠSy": 2337,
      "ĠSoviet": 2338,
      "ideo": 2339,
      "What": 2340,
      "ĠEmpire": 2341,
      "ĠGreat": 2342,
      "forman": 2343,
      "ront": 2344,
      "Ġfootball": 2345,
      "Ġsyn": 2346,
      "ĠCharles": 2347,
      "ĠBr": 2348,
      "Ġinterest": 2349,
      "Al": 2350,
      "ĠTe": 2351,
      "Ð°Ð±": 2352,
      "ĠKingdom": 2353,
      "Ġsize": 2354,
      "ming": 2355,
      "Ġavail": 2356,
      "ĠChinese": 2357,
      "ights": 2358,
      "Ġattack": 2359,
      "ĠAc": 2360,
      "raw": 2361,
      "ÑĥÐ´": 2362,
      "Ġship": 2363,
      "Ġmer": 2364,
      "Ġhost": 2365,
      "Ġ188": 2366,
      "asing": 2367,
      "Ġprevious": 2368,
      "bit": 2369,
      "Ġ[": 2370,
      "ilos": 2371,
      "bor": 2372,
      "aut": 2373,
      "ream": 2374,
      "Ġcontinued": 2375,
      "oung": 2376,
      "Ġdata": 2377,
      "reet": 2378,
      "Ġearli": 2379,
      "Ġconc": 2380,
      "ĠAg": 2381,
      "Ġcivil": 2382,
      "ĠBo": 2383,
      "Ġrecogn": 2384,
      "ĠÐ²Ñģ": 2385,
      "Ġcompet": 2386,
      "gether": 2387,
      "ĠItalian": 2388,
      "Ġtogether": 2389,
      "Ġfri": 2390,
      "face": 2391,
      "ĠGod": 2392,
      "Ġfail": 2393,
      "incip": 2394,
      "craft": 2395,
      "Ġcell": 2396,
      "Ð¸Ð´": 2397,
      "rest": 2398,
      "ĠQu": 2399,
      "Ġfull": 2400,
      "Ġpri": 2401,
      "rug": 2402,
      "ports": 2403,
      "Ġhalf": 2404,
      "omp": 2405,
      "Ġfree": 2406,
      "Ġtro": 2407,
      "ounced": 2408,
      "kn": 2409,
      "Ġbir": 2410,
      "Ġliter": 2411,
      "Ġmember": 2412,
      "atter": 2413,
      "Ġfac": 2414,
      "Ġblack": 2415,
      "ÐµÑĪ": 2416,
      "Ġinternational": 2417,
      "Ġpriv": 2418,
      "oms": 2419,
      "ĠSan": 2420,
      "ĠParty": 2421,
      "Ġdeb": 2422,
      "Ġhimself": 2423,
      "aff": 2424,
      "ĠCath": 2425,
      "Ġdi": 2426,
      "pecially": 2427,
      "Ġnext": 2428,
      "ĠÐ¾Ð½": 2429,
      "ilies": 2430,
      "off": 2431,
      "gin": 2432,
      "Ġoccur": 2433,
      "Ġterrit": 2434,
      "Ġincome": 2435,
      "ĠSpanish": 2436,
      "Ð¸Ð¹": 2437,
      "Ġrather": 2438,
      "Ġside": 2439,
      "hel": 2440,
      "Ġsometimes": 2441,
      "Ġwid": 2442,
      "omm": 2443,
      "iforn": 2444,
      "Ġnovel": 2445,
      "Ġsuper": 2446,
      "Ġdays": 2447,
      "ĠCouncil": 2448,
      "Ġ186": 2449,
      "Ġpolic": 2450,
      "Ġmaking": 2451,
      "lement": 2452,
      "bo": 2453,
      "Ġparty": 2454,
      "ico": 2455,
      "hers": 2456,
      "ĠArmy": 2457,
      "iment": 2458,
      "Ġfeature": 2459,
      "ĠVal": 2460,
      "viron": 2461,
      "Ġ2008": 2462,
      "aper": 2463,
      "ression": 2464,
      "Ġ187": 2465,
      "ify": 2466,
      "ĠÐľ": 2467,
      "ĠSer": 2468,
      "Ġplan": 2469,
      "anc": 2470,
      "rael": 2471,
      "ĠMor": 2472,
      "mp": 2473,
      "ote": 2474,
      "Ġfind": 2475,
      "ached": 2476,
      "ĠMich": 2477,
      "Ġdeter": 2478,
      "hib": 2479,
      "aint": 2480,
      "Ġbroad": 2481,
      "ĠJapanese": 2482,
      "Ġknow": 2483,
      "ef": 2484,
      "Ġagre": 2485,
      "ĠGeneral": 2486,
      "Ġseen": 2487,
      "Ġgenerally": 2488,
      "play": 2489,
      "Ġ2007": 2490,
      "ifornia": 2491,
      "ensive": 2492,
      "Ġtransl": 2493,
      "fic": 2494,
      "Ġpossible": 2495,
      "Ġbecom": 2496,
      "enced": 2497,
      "ael": 2498,
      "BC": 2499,
      "ĠRobert": 2500,
      "Ġtype": 2501,
      "Ġavailable": 2502,
      "Ġdefe": 2503,
      "Ġ2012": 2504,
      "Ġleast": 2505,
      "ĠPaul": 2506,
      "arn": 2507,
      "ĠBel": 2508,
      "Ġfinal": 2509,
      "ĠHenry": 2510,
      "Ġcapital": 2511,
      "ÐºÑĥ": 2512,
      "Ġhold": 2513,
      "Ġsqu": 2514,
      "Ġ21": 2515,
      "Ġenc": 2516,
      "Ġobserv": 2517,
      "ateg": 2518,
      "Ġestablish": 2519,
      "Ġformed": 2520,
      "Ġinvest": 2521,
      "writ": 2522,
      "unic": 2523,
      "ique": 2524,
      "ĠDuring": 2525,
      "ades": 2526,
      "ours": 2527,
      "Ġstar": 2528,
      "ements": 2529,
      "Ġchange": 2530,
      "Ġ(\"": 2531,
      "ria": 2532,
      "be": 2533,
      "Ġemploy": 2534,
      "Ġsch": 2535,
      "Ġpot": 2536,
      "ĠRev": 2537,
      "iding": 2538,
      "Ġoffer": 2539,
      "Ġche": 2540,
      "Ġmodel": 2541,
      "ask": 2542,
      "ume": 2543,
      "Ġprofess": 2544,
      "utions": 2545,
      "Ġpred": 2546,
      "Ġimpro": 2547,
      "Ġtemper": 2548,
      "imately": 2549,
      "Ġbase": 2550,
      "Ġperforman": 2551,
      "Ġcoll": 2552,
      "ibrary": 2553,
      "ĠÑĤÐ°Ðº": 2554,
      "ĠFre": 2555,
      "Ġstandard": 2556,
      "Ã³": 2557,
      "Ġ2011": 2558,
      "apt": 2559,
      "ÃŃ": 2560,
      "men": 2561,
      "ulated": 2562,
      "ĠLouis": 2563,
      "ĠIsland": 2564,
      "Ġget": 2565,
      "Ġeconomic": 2566,
      "ĠÐļ": 2567,
      "Ġforce": 2568,
      "aves": 2569,
      "go": 2570,
      "Ġpolitician": 2571,
      "olit": 2572,
      "Ġsee": 2573,
      "itect": 2574,
      "ister": 2575,
      "mar": 2576,
      "Ġnatural": 2577,
      "Ġ1990": 2578,
      "cle": 2579,
      "cast": 2580,
      "pite": 2581,
      "ĠDavid": 2582,
      "not": 2583,
      "Ġcost": 2584,
      "Ġresearch": 2585,
      "ĠRepublic": 2586,
      "Ġterms": 2587,
      "burg": 2588,
      "ship": 2589,
      "ĠWestern": 2590,
      "Ġfar": 2591,
      "ĠÐ¢": 2592,
      "Ġsubject": 2593,
      "Ġmarket": 2594,
      "ceed": 2595,
      "Ð°Ð¹": 2596,
      "rica": 2597,
      "peror": 2598,
      "ula": 2599,
      "ĠOther": 2600,
      "ky": 2601,
      "Ġfall": 2602,
      "ressed": 2603,
      "Ġphilos": 2604,
      "field": 2605,
      "artment": 2606,
      "ising": 2607,
      "Ġaccept": 2608,
      "Ġacross": 2609,
      "Ġ2009": 2610,
      "Ġdoc": 2611,
      "Ġwhite": 2612,
      "Ġ2006": 2613,
      "uation": 2614,
      "Ġabove": 2615,
      "Ġ23": 2616,
      "sych": 2617,
      "aps": 2618,
      "ederal": 2619,
      "Ġadminist": 2620,
      "Ġespecially": 2621,
      "ĠCalifornia": 2622,
      "inter": 2623,
      "Ġstyle": 2624,
      "ĠDes": 2625,
      "Ġge": 2626,
      "ĠBlack": 2627,
      "ĠSm": 2628,
      "Ġ2013": 2629,
      "Ð¸Ñħ": 2630,
      "Ġparts": 2631,
      "ĠCour": 2632,
      "Ġmem": 2633,
      "Ġfood": 2634,
      "Ġred": 2635,
      "bers": 2636,
      "ĠIr": 2637,
      "Ġsay": 2638,
      "ĠÃ": 2639,
      "Ġpur": 2640,
      "yr": 2641,
      "Ġsound": 2642,
      "aign": 2643,
      "Ġ2020": 2644,
      "Ġactor": 2645,
      "Ġaccount": 2646,
      "onst": 2647,
      "ĠGovern": 2648,
      "Ġ22": 2649,
      "Ġlanguages": 2650,
      "Ġfav": 2651,
      "Ġ1980": 2652,
      "Ð¸Ñģ": 2653,
      "order": 2654,
      "Ġsex": 2655,
      "Ð¾Ð¿": 2656,
      "ournal": 2657,
      "Ġrock": 2658,
      "ĠAccording": 2659,
      "eh": 2660,
      "Ġintroduced": 2661,
      "Ð°Ð¶": 2662,
      "Ġexec": 2663,
      "tt": 2664,
      "Ġcarri": 2665,
      "Ġculture": 2666,
      "atory": 2667,
      "Ġborn": 2668,
      "arily": 2669,
      "Ġconstit": 2670,
      "key": 2671,
      "Ġfund": 2672,
      "Ð¶": 2673,
      "Ġelection": 2674,
      "ĠIndia": 2675,
      "Ġthroughout": 2676,
      "Ã¶": 2677,
      "ĠCollege": 2678,
      "Ġentire": 2679,
      "ĠNo": 2680,
      "ĠMet": 2681,
      "Ġrail": 2682,
      "Ġcertain": 2683,
      "chie": 2684,
      "icro": 2685,
      "omas": 2686,
      "Ġinformation": 2687,
      "utch": 2688,
      "ÐºÐ¸": 2689,
      "Ġmid": 2690,
      "itor": 2691,
      "ĠVir": 2692,
      "vironment": 2693,
      "Ġ1970": 2694,
      "wood": 2695,
      "ĠCong": 2696,
      "iers": 2697,
      "Ġbuilding": 2698,
      "Ġhigher": 2699,
      "iles": 2700,
      "ike": 2701,
      "There": 2702,
      "Ġeast": 2703,
      "Ġ2014": 2704,
      "Ġregard": 2705,
      "ĠRussian": 2706,
      "Ġden": 2707,
      "oe": 2708,
      "ĠÑįÑĤÐ¾": 2709,
      "stand": 2710,
      "Ġcross": 2711,
      "Ġcentral": 2712,
      "Ġfounded": 2713,
      "Ġconcept": 2714,
      "Ð¾Ð·": 2715,
      "Ġfollowed": 2716,
      "Ð¸ÑĢ": 2717,
      "ĠWith": 2718,
      "Ð¸Ñı": 2719,
      "Ġpoet": 2720,
      "icle": 2721,
      "atives": 2722,
      "ĠRec": 2723,
      "Ġscient": 2724,
      ".-": 2725,
      "Ar": 2726,
      "Ġlower": 2727,
      "Ġsit": 2728,
      "Ġwest": 2729,
      "ĠQue": 2730,
      "iter": 2731,
      "194": 2732,
      "chan": 2733,
      "Ġrange": 2734,
      "Ġmeans": 2735,
      "ĠAlex": 2736,
      "west": 2737,
      "Ġviol": 2738,
      "ĠSte": 2739,
      "Ã¼": 2740,
      "Ġ26": 2741,
      "Ġenergy": 2742,
      "ĠAng": 2743,
      "Ġrights": 2744,
      "oid": 2745,
      "Ġcities": 2746,
      "Ġserved": 2747,
      "ĠCanada": 2748,
      "ĠBattle": 2749,
      "Ġneg": 2750,
      "roy": 2751,
      "ago": 2752,
      "ference": 2753,
      "25": 2754,
      "ett": 2755,
      "Ġmag": 2756,
      "80": 2757,
      "rem": 2758,
      "Ġground": 2759,
      "oney": 2760,
      "ĠAfrica": 2761,
      "year": 2762,
      "ĠÐ¾Ð±": 2763,
      "ving": 2764,
      "Ġprincip": 2765,
      "ĠIsrael": 2766,
      "Ġill": 2767,
      "ror": 2768,
      "ania": 2769,
      "Ġdistrib": 2770,
      "Ġhard": 2771,
      "Ġindic": 2772,
      "isl": 2773,
      "Ġmoved": 2774,
      "195": 2775,
      "ecess": 2776,
      "Ġcou": 2777,
      "Ġ27": 2778,
      "erous": 2779,
      "Ġdeterm": 2780,
      "iting": 2781,
      "rial": 2782,
      "Ġcontrib": 2783,
      "Ġsite": 2784,
      "Ġfig": 2785,
      "liament": 2786,
      "Ġmultip": 2787,
      "Ġaccess": 2788,
      "Ġcommunity": 2789,
      "aur": 2790,
      "Ġmovement": 2791,
      "Ġarmy": 2792,
      "Ġlaun": 2793,
      "Ġsuccessful": 2794,
      "cript": 2795,
      "Ġitself": 2796,
      "ĠCatholic": 2797,
      "Ġ2005": 2798,
      "ĠTur": 2799,
      "Ġtitle": 2800,
      "||": 2801,
      "Ġcy": 2802,
      "Ġhous": 2803,
      "Ġupon": 2804,
      "ĠÐ·Ð°": 2805,
      "Ġtaken": 2806,
      "Ġcritic": 2807,
      "like": 2808,
      "Ġ2016": 2809,
      "ills": 2810,
      "Ġrespect": 2811,
      "itch": 2812,
      "Ġtext": 2813,
      "ĠAustralia": 2814,
      "Ġevents": 2815,
      "Ġtrade": 2816,
      "hest": 2817,
      "Ġgod": 2818,
      "ought": 2819,
      "Ġtrib": 2820,
      "Ġver": 2821,
      "ĠMex": 2822,
      "Ġbar": 2823,
      "Ġisland": 2824,
      "ĠRoyal": 2825,
      "Ġinstead": 2826,
      "Ġwhose": 2827,
      "Ġmother": 2828,
      "Ġ2015": 2829,
      "Ġreported": 2830,
      "Ġthus": 2831,
      "mercial": 2832,
      "ĠWil": 2833,
      "Ġlost": 2834,
      "ÐµÐ½ÑĮ": 2835,
      "Ġrate": 2836,
      "rel": 2837,
      "Ġconsist": 2838,
      "Ġcourt": 2839,
      "Ġmeet": 2840,
      "itz": 2841,
      "Ġcontain": 2842,
      "ari": 2843,
      ":-": 2844,
      "ĠÐ¿Ð¾Ð´": 2845,
      "Ġput": 2846,
      "Ġaccording": 2847,
      "urity": 2848,
      "Ġschol": 2849,
      "Ġwent": 2850,
      "Ġfire": 2851,
      "Ġcomplex": 2852,
      "Ġdeg": 2853,
      "ÐºÐ¾": 2854,
      "Ġlik": 2855,
      "Ġprob": 2856,
      "ĠAward": 2857,
      "Ġalmost": 2858,
      "Ġconn": 2859,
      "Ð°Ð¿": 2860,
      "60": 2861,
      "ĠMart": 2862,
      "Ġcondu": 2863,
      "ĠLeague": 2864,
      "aren": 2865,
      "Ġpers": 2866,
      "Ġcapt": 2867,
      "uments": 2868,
      "rup": 2869,
      "Ġonce": 2870,
      "ols": 2871,
      "gypt": 2872,
      "ux": 2873,
      "Ġarr": 2874,
      "Ġvict": 2875,
      "Ġincludes": 2876,
      "Ġmarried": 2877,
      "Ð¸Ñĩ": 2878,
      "ords": 2879,
      "ems": 2880,
      "Ġsinger": 2881,
      "ÑģÑĤÐ²": 2882,
      "Ġimm": 2883,
      "Ġroad": 2884,
      "Ġradio": 2885,
      "ĠHistory": 2886,
      "ingu": 2887,
      "Ġ28": 2888,
      "âĢĻ": 2889,
      "Ġcop": 2890,
      "elling": 2891,
      "Ð»Ñı": 2892,
      "ĠÐŀ": 2893,
      "ĠSl": 2894,
      "ĠWe": 2895,
      "ĠMal": 2896,
      "ÑĦ": 2897,
      "Ġsurv": 2898,
      "Ġur": 2899,
      "ĠBra": 2900,
      "Ġchem": 2901,
      "Ġtax": 2902,
      "Ġabs": 2903,
      "action": 2904,
      "Ġste": 2905,
      "Ġbrother": 2906,
      "mon": 2907,
      "rim": 2908,
      "ishing": 2909,
      ".)": 2910,
      "Ġprote": 2911,
      "Ġmaintain": 2912,
      "Ġopt": 2913,
      "Ġbelow": 2914,
      "ĠWhite": 2915,
      "ÑĢÑĥÐ": 2916,
      "Ġcoast": 2917,
      "Ġannounced": 2918,
      "Ġcompos": 2919,
      "ufact": 2920,
      "Ġadop": 2921,
      "\")": 2922,
      "aughter": 2923,
      "Ġinteg": 2924,
      "ĠRichard": 2925,
      "right": 2926,
      "oice": 2927,
      "ĠTer": 2928,
      "ÐµÑĩ": 2929,
      "Ġkilled": 2930,
      "Ġ1960": 2931,
      "atch": 2932,
      "Ġnumbers": 2933,
      "ki": 2934,
      "Ġtraditional": 2935,
      "Ġreligious": 2936,
      "Ġthought": 2937,
      "ĠGro": 2938,
      "Ġforms": 2939,
      "Ġcampaign": 2940,
      "Ġfoc": 2941,
      "Ġkey": 2942,
      "Ġphot": 2943,
      "Ġlive": 2944,
      "ĠEarth": 2945,
      "Ġapplic": 2946,
      "ĠÑģÐ²": 2947,
      "ĠÑĤÑĭ": 2948,
      "ĠMount": 2949,
      "Ġservices": 2950,
      "Ġsat": 2951,
      "Ġstation": 2952,
      "Ġwife": 2953,
      "Ġanti": 2954,
      "Ġincreased": 2955,
      "ÐµÐ³Ð¾": 2956,
      "oks": 2957,
      "Ġhealth": 2958,
      "istan": 2959,
      "Ġcharacters": 2960,
      "berg": 2961,
      "ilities": 2962,
      "rought": 2963,
      "Ġlog": 2964,
      "cul": 2965,
      "ĠÑģÐ¿": 2966,
      "193": 2967,
      "Ġmedian": 2968,
      "bon": 2969,
      "Ġgave": 2970,
      "now": 2971,
      "ands": 2972,
      "ĠHall": 2973,
      "Ġ2018": 2974,
      "ĠSen": 2975,
      "Ġmonths": 2976,
      "ĠRed": 2977,
      "Ġcolon": 2978,
      "ĠMac": 2979,
      "Ġinfluence": 2980,
      "Ġ50": 2981,
      "Ġnuc": 2982,
      "ashington": 2983,
      "Ġnetwork": 2984,
      "Ġremained": 2985,
      "ĠDemocr": 2986,
      "ĠPat": 2987,
      "ÑĥÑİ": 2988,
      "Ġclos": 2989,
      "Ġunivers": 2990,
      "Ġstri": 2991,
      "Ġassociated": 2992,
      "ĠMe": 2993,
      "Ġ2017": 2994,
      "ĠDist": 2995,
      "ÐĴ": 2996,
      "ini": 2997,
      "ires": 2998,
      "Ġappeared": 2999,
      "ranch": 3000,
      "Ġeth": 3001,
      "ĠSim": 3002,
      "Ġhon": 3003,
      "ĠDep": 3004,
      "ensity": 3005,
      "ĠArt": 3006,
      "Ġcast": 3007,
      "ĠÐ¸Ð·": 3008,
      "Ġtour": 3009,
      "ores": 3010,
      "Ð½Ðµ": 3011,
      "Ġ2004": 3012,
      "22": 3013,
      "Ġ2019": 3014,
      "Ġdisp": 3015,
      "Ġâ": 3016,
      "ÐµÐ»ÑĮ": 3017,
      "Ġscience": 3018,
      "Ġreb": 3019,
      "Ġpercent": 3020,
      "clus": 3021,
      "Ġevidence": 3022,
      "uture": 3023,
      "Ġleading": 3024,
      "Ġsuff": 3025,
      "Ġuses": 3026,
      "ublican": 3027,
      "ĠCentral": 3028,
      "Ġwant": 3029,
      "ha": 3030,
      "ĠThomas": 3031,
      "Ġrelationship": 3032,
      "Ġepis": 3033,
      "Ġhom": 3034,
      "ounter": 3035,
      "Ġarchitect": 3036,
      "Ġprovided": 3037,
      "ÑĥÐ¼": 3038,
      "Ġeducation": 3039,
      "ston": 3040,
      "Ġet": 3041,
      "ĠMinister": 3042,
      "uke": 3043,
      "Ġaud": 3044,
      "ĠCourt": 3045,
      "ĠTrans": 3046,
      "ĠParis": 3047,
      "ĠLatin": 3048,
      "ength": 3049,
      "Ġexcept": 3050,
      "Ġnorm": 3051,
      "ĠEgypt": 3052,
      "Ġcompan": 3053,
      "Ġfamilies": 3054,
      "lam": 3055,
      "Ġrecorded": 3056,
      "put": 3057,
      "view": 3058,
      "Ġable": 3059,
      "rast": 3060,
      "ĠCanadian": 3061,
      "ÐŁ": 3062,
      "Ġfeatures": 3063,
      "otes": 3064,
      "medi": 3065,
      "Ġrespons": 3066,
      "Ġrule": 3067,
      "Ġallowed": 3068,
      "Ġmount": 3069,
      "ĠAlthough": 3070,
      "Ġstarted": 3071,
      "ership": 3072,
      "Ġlittle": 3073,
      "Ġappoint": 3074,
      "Ġelements": 3075,
      "Ġdon": 3076,
      "oul": 3077,
      "rown": 3078,
      "Ġmale": 3079,
      "Ġpast": 3080,
      "Ġprovide": 3081,
      "Ġrequired": 3082,
      "Ġreferred": 3083,
      "ĠArch": 3084,
      "Ġdistrict": 3085,
      "ĠBritain": 3086,
      "ĠFirst": 3087,
      "lim": 3088,
      "Ġstructure": 3089,
      "Ġunits": 3090,
      "Ġvideo": 3091,
      "oses": 3092,
      "Ġtravel": 3093,
      "ĠDay": 3094,
      "irl": 3095,
      "Ġoffice": 3096,
      "Ġvalue": 3097,
      "ĠItaly": 3098,
      "Ġcases": 3099,
      "ĠMary": 3100,
      "Ġwords": 3101,
      "ĠArab": 3102,
      "ĠFrank": 3103,
      "ĠUK": 3104,
      "ĠPri": 3105,
      "Ġcommercial": 3106,
      "ĠFranc": 3107,
      "ĠLake": 3108,
      "Ġcover": 3109,
      "ĠSam": 3110,
      "band": 3111,
      "Ġclub": 3112,
      "Ġclose": 3113,
      "Ġdam": 3114,
      "Ġdesigned": 3115,
      "Ġachie": 3116,
      "Ġtre": 3117,
      "Ġfemale": 3118,
      "ĠTra": 3119,
      "Ġcensus": 3120,
      "umn": 3121,
      "Ġeventually": 3122,
      "Ġten": 3123,
      "En": 3124,
      "Ġoccup": 3125,
      "Ġtoo": 3126,
      "ĠWhile": 3127,
      "och": 3128,
      "Ð¸Ð·": 3129,
      "ened": 3130,
      "History": 3131,
      "70": 3132,
      "ĠMer": 3133,
      "ÑĭÐ²": 3134,
      "ĠNet": 3135,
      "udd": 3136,
      "idents": 3137,
      "Ġoutside": 3138,
      "Ġschools": 3139,
      "Ġfight": 3140,
      "antic": 3141,
      "Ġmeaning": 3142,
      "ĠZe": 3143,
      "Ġelected": 3144,
      "ĠScott": 3145,
      "Ġgrad": 3146,
      "ĠWashington": 3147,
      "Ġ29": 3148,
      "Ġmach": 3149,
      "Ġsource": 3150,
      "Ġaircraft": 3151,
      "ÑĭÐ¹": 3152,
      "Ġparticularly": 3153,
      "ĠMiss": 3154,
      "After": 3155,
      "asion": 3156,
      "ĠAcadem": 3157,
      "uit": 3158,
      "orks": 3159,
      "Ġindustry": 3160,
      "Ġcreat": 3161,
      "eleb": 3162,
      "Ġdirector": 3163,
      "inct": 3164,
      "ĠIm": 3165,
      "Ġsaw": 3166,
      "ĠDutch": 3167,
      "Ġquest": 3168,
      "known": 3169,
      "vention": 3170,
      "Ġforeign": 3171,
      "Ġsoft": 3172,
      "Ġstudents": 3173,
      "Ġmanufact": 3174,
      "lymp": 3175,
      "ste": 3176,
      "orpor": 3177,
      "ĠLaw": 3178,
      "stant": 3179,
      "--": 3180,
      "ĠSal": 3181,
      "Ġrelated": 3182,
      "Ġconcern": 3183,
      "ĠÑĢÐ°Ð·": 3184,
      "ental": 3185,
      "Ġancient": 3186,
      "Ġnorthern": 3187,
      "ibility": 3188,
      "ĠInstit": 3189,
      "Ġreturned": 3190,
      "Ġmajority": 3191,
      "ficult": 3192,
      "Ġself": 3193,
      "ixed": 3194,
      "Ġcomputer": 3195,
      "Ġ2001": 3196,
      "Ġdou": 3197,
      "iff": 3198,
      "Ġamount": 3199,
      "Ġyoung": 3200,
      "Ġeffort": 3201,
      "ĠHistor": 3202,
      "Ġsymb": 3203,
      "atively": 3204,
      "Ð¾Ð³Ð´Ð°": 3205,
      "eck": 3206,
      "ĠMy": 3207,
      "ĠIf": 3208,
      "Ġperformance": 3209,
      "90": 3210,
      "Ġrace": 3211,
      "Ð½Ð°": 3212,
      "ĠTex": 3213,
      "Ġapprox": 3214,
      "ĠList": 3215,
      "Ġestim": 3216,
      "Ġworking": 3217,
      "aker": 3218,
      "Ġparticip": 3219,
      "Ġprivate": 3220,
      "Ð¾Ð²Ð¾ÑĢ": 3221,
      "hing": 3222,
      ");": 3223,
      "edy": 3224,
      "Ġconsider": 3225,
      "Ġchurch": 3226,
      "Ġcareer": 3227,
      "Ġnames": 3228,
      "Ġgra": 3229,
      "uth": 3230,
      "ĠVirgin": 3231,
      "ĠIII": 3232,
      "ij": 3233,
      "ysis": 3234,
      "Ġ/": 3235,
      "owers": 3236,
      "rey": 3237,
      "Ġactress": 3238,
      "den": 3239,
      "ÑģÑĤÑĮ": 3240,
      "ĠGreen": 3241,
      "):": 3242,
      "Ġdifficult": 3243,
      "ilm": 3244,
      "ĠInter": 3245,
      "Ġtransport": 3246,
      "ero": 3247,
      "reater": 3248,
      "Ġmight": 3249,
      "Ġstated": 3250,
      "ection": 3251,
      "Ġbrought": 3252,
      "asc": 3253,
      "ĠAustralian": 3254,
      "ĠMuseum": 3255,
      "Ġmathem": 3256,
      "ques": 3257,
      "rate": 3258,
      "Ġbelieved": 3259,
      "aval": 3260,
      "Ġsil": 3261,
      "Ġdomin": 3262,
      "Ġolder": 3263,
      "onic": 3264,
      "Ġincreasing": 3265,
      "ĠTo": 3266,
      "Ġalways": 3267,
      "NA": 3268,
      "Ġaway": 3269,
      "ĠKh": 3270,
      "Ġmiss": 3271,
      "atal": 3272,
      "Ġinstit": 3273,
      "Ġloss": 3274,
      "Ġsouthern": 3275,
      "Ġexam": 3276,
      "Ġpay": 3277,
      "ĠMany": 3278,
      "Ġmechan": 3279,
      "Ð½ÑĭÐ¹": 3280,
      "hood": 3281,
      "reme": 3282,
      "elt": 3283,
      "ĠSwed": 3284,
      "ground": 3285,
      "Ġsubsequ": 3286,
      "ension": 3287,
      "ĠÐ¶ÐµÐ½": 3288,
      "Ġ185": 3289,
      "Ġconstruction": 3290,
      "based": 3291,
      "Ġ2002": 3292,
      "Ġcaused": 3293,
      "Ġbattle": 3294,
      "Ġ40": 3295,
      "Ġsequ": 3296,
      "Ġcause": 3297,
      "icles": 3298,
      "part": 3299,
      "Ġsurface": 3300,
      "Ġ=": 3301,
      "Ġaction": 3302,
      "alls": 3303,
      "Ġmagn": 3304,
      "Ġyour": 3305,
      "Ġrank": 3306,
      "aged": 3307,
      "Ġjud": 3308,
      "Ġvill": 3309,
      "oor": 3310,
      "ÑĥÑĩ": 3311,
      "ishop": 3312,
      "istance": 3313,
      "ili": 3314,
      "Ġrelease": 3315,
      "Ġ2003": 3316,
      ",\"": 3317,
      "rig": 3318,
      "ĠâĢ": 3319,
      "ĠPeter": 3320,
      "ĠÐĺ": 3321,
      "Ġreading": 3322,
      "ita": 3323,
      "Ġbirth": 3324,
      "head": 3325,
      "elves": 3326,
      "leg": 3327,
      "Ġincrease": 3328,
      "De": 3329,
      "ĠCap": 3330,
      "Ġ65": 3331,
      "Ġemb": 3332,
      "Ġbeginning": 3333,
      "ĠGold": 3334,
      "Ð°Ð»ÑĮ": 3335,
      "see": 3336,
      "Ġpsych": 3337,
      "Ġregular": 3338,
      "Ġdate": 3339,
      "min": 3340,
      "Ġsett": 3341,
      "ulf": 3342,
      "alled": 3343,
      "ĠLibrary": 3344,
      "Ġris": 3345,
      "24": 3346,
      "ĠOld": 3347,
      "olf": 3348,
      "Ġopened": 3349,
      "Ġeight": 3350,
      "ĠSociety": 3351,
      "time": 3352,
      "Ġemer": 3353,
      "Ġvir": 3354,
      "For": 3355,
      "odes": 3356,
      "ÑĥÑĪ": 3357,
      "ĠCenter": 3358,
      "uff": 3359,
      "ĠVol": 3360,
      "ĠÐ²ÑģÐµ": 3361,
      "Ġlay": 3362,
      "Ġcut": 3363,
      "istics": 3364,
      "Ġdise": 3365,
      "ydro": 3366,
      "Ġlab": 3367,
      "Ġdom": 3368,
      "km": 3369,
      "Ġhighest": 3370,
      "Ġwriting": 3371,
      "Ġess": 3372,
      "ĠBay": 3373,
      "ĠDon": 3374,
      "Ġtypically": 3375,
      "Ġcommand": 3376,
      "Ġindependent": 3377,
      "Ġacqu": 3378,
      "Ġenvironment": 3379,
      "ena": 3380,
      "ulture": 3381,
      "ĠGrand": 3382,
      "Ġwriter": 3383,
      "ĠJose": 3384,
      "heast": 3385,
      "Ġpoints": 3386,
      "Ġchanges": 3387,
      "ĠStud": 3388,
      "airs": 3389,
      "Ġearlier": 3390,
      "ĠCongress": 3391,
      "ampions": 3392,
      "ĠAssoci": 3393,
      "uries": 3394,
      "Ġplant": 3395,
      "Ġtar": 3396,
      "ĠRome": 3397,
      "Ġbooks": 3398,
      "ĠAcademy": 3399,
      "Ġreplaced": 3400,
      "cies": 3401,
      "Ġlarger": 3402,
      "Ġlines": 3403,
      "ios": 3404,
      "Ġaward": 3405,
      "itude": 3406,
      "lying": 3407,
      "ĠPers": 3408,
      "Ġaltern": 3409,
      "itte": 3410,
      "ĠIrish": 3411,
      "Ġceleb": 3412,
      "ĠHam": 3413,
      "23": 3414,
      "Ġever": 3415,
      "Ġremov": 3416,
      "Ġoriginally": 3417,
      "Ġspecific": 3418,
      "Ġfuture": 3419,
      "Ġdyn": 3420,
      "Ġplayers": 3421,
      "Ġinstr": 3422,
      "lor": 3423,
      "Ġgold": 3424,
      "ras": 3425,
      "Ġcenter": 3426,
      "Ġpolicy": 3427,
      "ĠJewish": 3428,
      "Ġmor": 3429,
      "ĠOlymp": 3430,
      "Ġadded": 3431,
      "Ġseven": 3432,
      "anks": 3433,
      "ĠDistrict": 3434,
      "iences": 3435,
      "olk": 3436,
      "Ġbound": 3437,
      "igital": 3438,
      "Ð°ÑİÑĤ": 3439,
      "Ġdestroy": 3440,
      "pected": 3441,
      "inary": 3442,
      "Ġsem": 3443,
      "Ġleader": 3444,
      "oper": 3445,
      "arent": 3446,
      "Ġtypes": 3447,
      "ĠSun": 3448,
      "ledge": 3449,
      "Ġgrowth": 3450,
      "Ġcompanies": 3451,
      "flict": 3452,
      "ĠBut": 3453,
      "mselves": 3454,
      "ĠMichael": 3455,
      "Ġplaces": 3456,
      "ĠPac": 3457,
      "ĠDan": 3458,
      "ĠStreet": 3459,
      "Äģ": 3460,
      "Ġdocument": 3461,
      "Ġpractice": 3462,
      "utive": 3463,
      "Ġtoday": 3464,
      "Ġpen": 3465,
      "odern": 3466,
      "Ġ184": 3467,
      "Ð¡": 3468,
      "Ġcand": 3469,
      "ĠMost": 3470,
      "Ġthemselves": 3471,
      "Ġprimary": 3472,
      "itiz": 3473,
      "Ġinterp": 3474,
      "ready": 3475,
      "ĠCompany": 3476,
      "Ġdaughter": 3477,
      "Ġcode": 3478,
      "anic": 3479,
      "ĠMad": 3480,
      "Ġlimited": 3481,
      "Ġwind": 3482,
      "ĠCont": 3483,
      "ĠÑģÐ»": 3484,
      "ties": 3485,
      "vin": 3486,
      "ĠBur": 3487,
      "porary": 3488,
      "Ġpie": 3489,
      "Ġ1999": 3490,
      "Ð¸Ð¸": 3491,
      "Ġcome": 3492,
      "Ġmedia": 3493,
      "orial": 3494,
      "Ġsettle": 3495,
      "ÐµÑĪÑĮ": 3496,
      "Ġhouseholds": 3497,
      "Ġvia": 3498,
      "ĠMont": 3499,
      "igned": 3500,
      "ĠCons": 3501,
      "Ġask": 3502,
      "Ġspeed": 3503,
      "elled": 3504,
      "Ġsea": 3505,
      "ancial": 3506,
      "aching": 3507,
      "Ġhor": 3508,
      "Ġlegal": 3509,
      "Ġbene": 3510,
      "ĠSpain": 3511,
      "Ġdensity": 3512,
      "Ġfront": 3513,
      "Ġperformed": 3514,
      "Ġdefin": 3515,
      "ĠFrom": 3516,
      "pro": 3517,
      "Ġpersonal": 3518,
      "isions": 3519,
      "SA": 3520,
      "Ġeffects": 3521,
      "hab": 3522,
      "Ġnar": 3523,
      "Ġpurp": 3524,
      "Ġclear": 3525,
      "Ð¸ÑĨ": 3526,
      "ĠMat": 3527,
      "ĠApp": 3528,
      "It": 3529,
      "Ġnature": 3530,
      "Ġshows": 3531,
      "ift": 3532,
      "Ġlonger": 3533,
      "Ġinvolved": 3534,
      "onse": 3535,
      "ender": 3536,
      "Ġneigh": 3537,
      "izing": 3538,
      "ophy": 3539,
      "spe": 3540,
      "amer": 3541,
      "Ġlook": 3542,
      "writer": 3543,
      "Ġriver": 3544,
      "lied": 3545,
      "rison": 3546,
      "reland": 3547,
      "ĠÐ¾Ð´": 3548,
      "ables": 3549,
      "Ġnecess": 3550,
      "This": 3551,
      "ĠCommun": 3552,
      "obal": 3553,
      "road": 3554,
      "resp": 3555,
      "Ġcommonly": 3556,
      "ĠIts": 3557,
      "uman": 3558,
      "oted": 3559,
      "ÑĥÐ¿": 3560,
      "Ġdefined": 3561,
      "Ġera": 3562,
      "anced": 3563,
      "estival": 3564,
      "Ġplann": 3565,
      "uous": 3566,
      "unk": 3567,
      "Ġeas": 3568,
      "Ġweek": 3569,
      "ĠServ": 3570,
      "ĠSystem": 3571,
      "ĠRepublican": 3572,
      "ĠCamb": 3573,
      "Ġlack": 3574,
      "ources": 3575,
      "Ġscreen": 3576,
      "Ġremains": 3577,
      "Ġeconomy": 3578,
      "ĠÐ¼ÑĥÐ¶": 3579,
      "unt": 3580,
      "27": 3581,
      "Other": 3582,
      "Ġstage": 3583,
      "Ġbreak": 3584,
      "Ð°ÑĪ": 3585,
      "ĠVict": 3586,
      "Ġproposed": 3587,
      "ĠÐ¿ÐµÑĢ": 3588,
      "Ġens": 3589,
      "Ġprec": 3590,
      "Ġsources": 3591,
      "Ġbur": 3592,
      "Ġproduce": 3593,
      "ĠStar": 3594,
      "ka": 3595,
      "ĠSaint": 3596,
      "atre": 3597,
      "Ð°Ð»Ð¸": 3598,
      "Ġbetter": 3599,
      "Ġprint": 3600,
      "Ġtroops": 3601,
      "ÐµÐ½Ñı": 3602,
      "ĠKore": 3603,
      "Ġox": 3604,
      "Ġalready": 3605,
      "Ġrequire": 3606,
      "aring": 3607,
      "ooks": 3608,
      "Ġwhether": 3609,
      "Ġreview": 3610,
      "pir": 3611,
      "Ġenter": 3612,
      "Ġacadem": 3613,
      "Ð½Ð¸Ðº": 3614,
      "ÐĿ": 3615,
      "well": 3616,
      "Ġop": 3617,
      "Ġconver": 3618,
      "Ġlo": 3619,
      "Ġord": 3620,
      "nic": 3621,
      "ipl": 3622,
      "asons": 3623,
      "Ġindividuals": 3624,
      "Ġfemales": 3625,
      "ĠÑĪ": 3626,
      "Ġnight": 3627,
      "Ġproblem": 3628,
      "Ġwhom": 3629,
      "Ġminor": 3630,
      "oz": 3631,
      "Ġkeep": 3632,
      "Ġwidely": 3633,
      "Ġgive": 3634,
      "Ġlaws": 3635,
      "ĠKe": 3636,
      "ĠChe": 3637,
      "vey": 3638,
      "Ġmostly": 3639,
      "ÑħÐ¾Ð´": 3640,
      "ya": 3641,
      "ĠFin": 3642,
      "Ġant": 3643,
      "axim": 3644,
      "Cl": 3645,
      "Ġmusical": 3646,
      "Ġarm": 3647,
      "ĠTown": 3648,
      "Ġconditions": 3649,
      "Ġhistorical": 3650,
      "mark": 3651,
      "ĠAsia": 3652,
      "ĠInstitute": 3653,
      "Ġsquare": 3654,
      "Ġast": 3655,
      "rich": 3656,
      "Ġlength": 3657,
      "Ġfa": 3658,
      "Ġ...": 3659,
      "ĠRussia": 3660,
      "Ġquant": 3661,
      "Ġ1998": 3662,
      "opp": 3663,
      "According": 3664,
      "Ġgas": 3665,
      "During": 3666,
      "26": 3667,
      "28": 3668,
      "ola": 3669,
      "million": 3670,
      "Ġnation": 3671,
      "ĠAngel": 3672,
      "use": 3673,
      "Ġblood": 3674,
      "Ġdirectly": 3675,
      "ests": 3676,
      "Ġball": 3677,
      "Ġwestern": 3678,
      "sec": 3679,
      "ellow": 3680,
      "Ġprevent": 3681,
      "Ġdiscuss": 3682,
      "Ġconflict": 3683,
      "Ð¾Ð»ÑĮÐºÐ¾": 3684,
      "Ġresults": 3685,
      "omer": 3686,
      "ĠBest": 3687,
      "ĠIreland": 3688,
      "cks": 3689,
      "Ġfamous": 3690,
      "Ġlikely": 3691,
      "ada": 3692,
      "lected": 3693,
      "Ġ1950": 3694,
      "Ġseparate": 3695,
      "ĠAtl": 3696,
      "Ġtowards": 3697,
      "azine": 3698,
      "Ġcreate": 3699,
      "190": 3700,
      "ĠÐ¿Ð¾Ð»": 3701,
      "irit": 3702,
      "iance": 3703,
      "ĠSmith": 3704,
      "ultural": 3705,
      "ivity": 3706,
      "Ġrap": 3707,
      "At": 3708,
      "ients": 3709,
      "Ġlegisl": 3710,
      "ging": 3711,
      "Ġseat": 3712,
      "ĠÑģÐº": 3713,
      "Ġcontains": 3714,
      "Ġthreat": 3715,
      "Ġsupported": 3716,
      "ĠFore": 3717,
      "uns": 3718,
      "ĠRad": 3719,
      "ĠRout": 3720,
      "Ġphysical": 3721,
      "ĠMiddle": 3722,
      "He": 3723,
      "Ġoil": 3724,
      "ĠCast": 3725,
      "bl": 3726,
      "change": 3727,
      "Ġ1996": 3728,
      "Ġworked": 3729,
      "Ġpressure": 3730,
      "gely": 3731,
      "Ġtechnology": 3732,
      "ĠPolish": 3733,
      "29": 3734,
      "ÐµÐ¿": 3735,
      "itar": 3736,
      "rol": 3737,
      "Ð¸ÑĪ": 3738,
      "Ġreason": 3739,
      "Ġmeasure": 3740,
      "ĠÐ´Ð²": 3741,
      "Ġrat": 3742,
      "Ġrecent": 3743,
      "inet": 3744,
      "ĠEdward": 3745,
      "asty": 3746,
      "ĠMark": 3747,
      "Ġcommunic": 3748,
      "ĠVirginia": 3749,
      "Ġcompleted": 3750,
      "ÑīÐµ": 3751,
      "Ġjournal": 3752,
      "Ġterritory": 3753,
      "ros": 3754,
      "ĠSea": 3755,
      "Ġnumerous": 3756,
      "Ġmultiple": 3757,
      "Ġdram": 3758,
      "ĠAssociation": 3759,
      "perial": 3760,
      "gian": 3761,
      "isation": 3762,
      "ida": 3763,
      "Ġreached": 3764,
      "Ġcomplete": 3765,
      "Ġmyth": 3766,
      "ĠSince": 3767,
      "Ġsociety": 3768,
      "ÑĢÑĥÐ³": 3769,
      "ota": 3770,
      "Ġang": 3771,
      "ona": 3772,
      "Ġweap": 3773,
      "respond": 3774,
      "ĠCivil": 3775,
      "Ġresponse": 3776,
      "Ġdeal": 3777,
      "Ðŀ": 3778,
      "itted": 3779,
      "Ġstatus": 3780,
      "Ġspread": 3781,
      "Ġvari": 3782,
      "Ġletter": 3783,
      "ĠVer": 3784,
      "Ġmakes": 3785,
      "Ġexpand": 3786,
      "Åį": 3787,
      "Ð¾ÑĪ": 3788,
      "ĠNorthern": 3789,
      "Ġcust": 3790,
      "aled": 3791,
      "where": 3792,
      "rying": 3793,
      "ĠJul": 3794,
      "Ġchanged": 3795,
      "Ad": 3796,
      "Ġproblems": 3797,
      "Ġ31": 3798,
      "ittee": 3799,
      "Ã¨": 3800,
      "ien": 3801,
      "ano": 3802,
      "ech": 3803,
      "Ð¾Ðµ": 3804,
      "Ġsoon": 3805,
      "ĠMa": 3806,
      "Ġpos": 3807,
      "Ġelectron": 3808,
      "rick": 3809,
      "ĠRoad": 3810,
      "het": 3811,
      "inent": 3812,
      "Ġwriters": 3813,
      "Ġfle": 3814,
      "Ð¾ÑģÑĤ": 3815,
      "ellig": 3816,
      "arc": 3817,
      "Ġ183": 3818,
      "uge": 3819,
      "ĠEastern": 3820,
      "Ġ1997": 3821,
      "wide": 3822,
      "Ġcandid": 3823,
      "Ġmoney": 3824,
      "ĠÐ³Ð¾Ð²Ð¾ÑĢ": 3825,
      "met": 3826,
      "rd": 3827,
      "pr": 3828,
      "Ġidea": 3829,
      "ĠPet": 3830,
      "Ġclaimed": 3831,
      "ĠPacific": 3832,
      "Ġplaced": 3833,
      "Ġimplement": 3834,
      "ĠBen": 3835,
      "ĠJoseph": 3836,
      "Ġlargely": 3837,
      "Ġsurround": 3838,
      "ips": 3839,
      "Ġlink": 3840,
      "ĠOx": 3841,
      "Ġlevels": 3842,
      "itation": 3843,
      "Ġthr": 3844,
      "Ġvariety": 3845,
      "Ġpeace": 3846,
      "Ġcolor": 3847,
      "nd": 3848,
      "eff": 3849,
      "ĠEmperor": 3850,
      "ÑĥÑĢ": 3851,
      "Ġvote": 3852,
      "Ġunit": 3853,
      "ĠCarol": 3854,
      "ĠHill": 3855,
      "ĠSecond": 3856,
      "Ġstudies": 3857,
      "edic": 3858,
      "ĠIslam": 3859,
      "ĠAre": 3860,
      "Ġtemperature": 3861,
      "ĠVictor": 3862,
      "Ġwoman": 3863,
      "itt": 3864,
      "ĠRevolution": 3865,
      "Ġcounties": 3866,
      "Ġcateg": 3867,
      "ĠJud": 3868,
      "ĠYear": 3869,
      "ato": 3870,
      "ply": 3871,
      "Ġcultural": 3872,
      "Ġsoftware": 3873,
      "pped": 3874,
      "Ġimmedi": 3875,
      "Ġapproximately": 3876,
      "Ġmove": 3877,
      "Ġ2021": 3878,
      "Ġnomin": 3879,
      "Ġsus": 3880,
      "ocal": 3881,
      "Ġappears": 3882,
      "Ġsmaller": 3883,
      "ĠMag": 3884,
      "tion": 3885,
      "bour": 3886,
      "ĠÑĤÑĢ": 3887,
      "Ġcollection": 3888,
      "ĠTexas": 3889,
      "Ġ1992": 3890,
      "ĠSuper": 3891,
      "izations": 3892,
      "Ġuniversity": 3893,
      "Ġfinancial": 3894,
      "Ð»Ð¾": 3895,
      "Ġdivided": 3896,
      "Ġjoined": 3897,
      "ĠÑĤÐ¾": 3898,
      "ĠPortug": 3899,
      "ĠMexico": 3900,
      "ĠÐ¼ÐµÐ½Ñı": 3901,
      "Ġesc": 3902,
      "Ġmur": 3903,
      "Ġbehav": 3904,
      "Ġelement": 3905,
      "Ð»Ð°": 3906,
      "astic": 3907,
      "uz": 3908,
      "ĠTV": 3909,
      "standing": 3910,
      "Ġ1994": 3911,
      "ĠRock": 3912,
      "ĠGal": 3913,
      "Ġforced": 3914,
      "ternet": 3915,
      "icted": 3916,
      "Ġgreater": 3917,
      "Ġadditional": 3918,
      "Ġenough": 3919,
      "Ġproducts": 3920,
      "Ġcitiz": 3921,
      "Ġprior": 3922,
      "icago": 3923,
      "Ġtransfer": 3924,
      "Ġdetail": 3925,
      "ĠâĢĶ": 3926,
      "ĠÐºÑĢ": 3927,
      "ned": 3928,
      "enes": 3929,
      "Ġdisplay": 3930,
      "arter": 3931,
      "Ġmarriage": 3932,
      "Pe": 3933,
      "Ġquick": 3934,
      "Ġcred": 3935,
      "roll": 3936,
      "ĠMass": 3937,
      "Ġhus": 3938,
      "ologist": 3939,
      "Ġsigned": 3940,
      "back": 3941,
      "ext": 3942,
      "ares": 3943,
      "Ġ1995": 3944,
      "rus": 3945,
      "Ġissues": 3946,
      "Ġinj": 3947,
      "Ġbroadcast": 3948,
      "Ġmention": 3949,
      "osing": 3950,
      "stitution": 3951,
      "ĠGra": 3952,
      "ietn": 3953,
      "ises": 3954,
      "Ġsecret": 3955,
      "nel": 3956,
      "Ġoperations": 3957,
      "cont": 3958,
      "Ġdiss": 3959,
      "ĠRom": 3960,
      "Ġreform": 3961,
      "Ġlocation": 3962,
      "ects": 3963,
      "ĠProt": 3964,
      "aches": 3965,
      "rative": 3966,
      "Ġnearly": 3967,
      "ĠDiv": 3968,
      "ĠPrime": 3969,
      "Ġactive": 3970,
      "duc": 3971,
      "Ġwhole": 3972,
      "Ġdial": 3973,
      "ĠForce": 3974,
      "ias": 3975,
      "iana": 3976,
      "ider": 3977,
      "Ġdecided": 3978,
      "Ġveh": 3979,
      "ĠOff": 3980,
      "ĠScot": 3981,
      "Ð³Ð¾": 3982,
      "Ġcard": 3983,
      "win": 3984,
      "Ġproducer": 3985,
      "Ġcorrespond": 3986,
      "iant": 3987,
      "stein": 3988,
      "Ġshown": 3989,
      "ĠMartin": 3990,
      "Ġ||": 3991,
      "ĠJer": 3992,
      "Ġround": 3993,
      "CA": 3994,
      "Ġfocus": 3995,
      "Ġpassed": 3996,
      "unicip": 3997,
      "Ġfriend": 3998,
      "ĠMin": 3999,
      "Ġdiscovered": 4000,
      "ĠBas": 4001,
      "Ġestimated": 4002,
      "annel": 4003,
      "Ġobtain": 4004,
      "Ġcentre": 4005,
      "Ġissue": 4006,
      "ĠFer": 4007,
      "Ġsal": 4008,
      "Ġappointed": 4009,
      "earch": 4010,
      "Ġfederal": 4011,
      "Ġbecomes": 4012,
      "anta": 4013,
      "Ġadopted": 4014,
      "erve": 4015,
      "!-": 4016,
      "Ġfeatured": 4017,
      "ĠDo": 4018,
      "Ġhydro": 4019,
      "ĠDepartment": 4020,
      "onn": 4021,
      "Ġpath": 4022,
      "Ġborder": 4023,
      "Ġthink": 4024,
      "ams": 4025,
      "Ġlived": 4026,
      "Ð½Ð¾Ð¹": 4027,
      "ua": 4028,
      "ĠCamp": 4029,
      "ampionship": 4030,
      "ÑģÐ»Ð¸": 4031,
      "Ġproperty": 4032,
      "Ġraces": 4033,
      "Ġmission": 4034,
      "Ġhit": 4035,
      "ĠMil": 4036,
      "Ġlatter": 4037,
      "Ġconcent": 4038,
      "Ġcannot": 4039,
      "ĠEv": 4040,
      "ĠNavy": 4041,
      "Ð°ÐµÑĤÑģÑı": 4042,
      "ĠBook": 4043,
      "Ġour": 4044,
      "Ġbig": 4045,
      "ector": 4046,
      "Ġboard": 4047,
      "itors": 4048,
      "Ġtaking": 4049,
      "ĠPrince": 4050,
      "Ġnob": 4051,
      "Ġregions": 4052,
      "ye": 4053,
      "Ġbuildings": 4054,
      "ĠKn": 4055,
      "Ġcomposer": 4056,
      "Ġlove": 4057,
      "arly": 4058,
      "ĠDen": 4059,
      "Ġkind": 4060,
      "Ġreve": 4061,
      "aud": 4062,
      "Ġhighly": 4063,
      "Ġpolice": 4064,
      "Ġdirected": 4065,
      "Ġtakes": 4066,
      "enth": 4067,
      "ĠQueen": 4068,
      "|-": 4069,
      "Ġgrant": 4070,
      "Ġbasis": 4071,
      "Ge": 4072,
      "ÐµÑģÑĤ": 4073,
      "ĠRob": 4074,
      "oke": 4075,
      "Ġbehind": 4076,
      "Ġwin": 4077,
      "Ġhyp": 4078,
      "ession": 4079,
      "ĠÐ¿Ð¾Ñģ": 4080,
      "ĠInt": 4081,
      "Ġbank": 4082,
      "Ġwide": 4083,
      "war": 4084,
      "Ðľ": 4085,
      "Ġconsum": 4086,
      "Ġprovides": 4087,
      "Ġeastern": 4088,
      "embly": 4089,
      "ĠĠĠĠĠĠĠĠ": 4090,
      "Ġnuclear": 4091,
      "ollowing": 4092,
      "ĠAut": 4093,
      "Ġprison": 4094,
      "ĠAnt": 4095,
      "Ġpark": 4096,
      "ĠCarl": 4097,
      "cel": 4098,
      "Ġpoor": 4099,
      "ĠÑĦ": 4100,
      "Ġ1991": 4101,
      "Ġcomput": 4102,
      "Ġprofessional": 4103,
      "ulations": 4104,
      "Ġult": 4105,
      "Ġsaf": 4106,
      "ĠBill": 4107,
      "Ġscholars": 4108,
      "ĠLeg": 4109,
      "Ġprograms": 4110,
      "irm": 4111,
      "OS": 4112,
      "onents": 4113,
      "ĠÑĤÐµÐ±": 4114,
      "Ġdemonst": 4115,
      "ÑĥÑģ": 4116,
      "Ġguitar": 4117,
      "za": 4118,
      "ĠLiber": 4119,
      "state": 4120,
      "Ġtrue": 4121,
      "olitan": 4122,
      "Ġhusband": 4123,
      "ells": 4124,
      "Ġcarried": 4125,
      "Ġwood": 4126,
      "Ġedition": 4127,
      "Ġended": 4128,
      "ÐĲ": 4129,
      "ĠParliament": 4130,
      "bre": 4131,
      "Ð°Ð¼Ð¸": 4132,
      "Ġdraw": 4133,
      "ĠChicago": 4134,
      "Ġartists": 4135,
      "Ġpaper": 4136,
      "Ġheav": 4137,
      "ĠDr": 4138,
      "ĠWind": 4139,
      "ecause": 4140,
      "ĠLand": 4141,
      "Ġgrand": 4142,
      "ĠCa": 4143,
      "Ġdistinct": 4144,
      "Ġcontroll": 4145,
      "onom": 4146,
      "zil": 4147,
      "ĠDemocratic": 4148,
      "Ġcounter": 4149,
      "illa": 4150,
      "undred": 4151,
      "Ġsection": 4152,
      "Ġstep": 4153,
      "Ġhar": 4154,
      "Ġtraining": 4155,
      "ĠÐ¯": 4156,
      "Ġnoted": 4157,
      "ÐµÐ¼Ñĥ": 4158,
      "Ġcommunities": 4159,
      "Ã¤": 4160,
      "Ġdisease": 4161,
      "Ġsummer": 4162,
      "Ġcontract": 4163,
      "Ġmicro": 4164,
      "board": 4165,
      "Ġcenturies": 4166,
      "Ġfunctions": 4167,
      "ĠAnn": 4168,
      "alle": 4169,
      "Ġmetal": 4170,
      "ĠRoute": 4171,
      "akers": 4172,
      "Ġdone": 4173,
      "ĠMuslim": 4174,
      "ado": 4175,
      "ĠEr": 4176,
      "Ġbomb": 4177,
      "emporary": 4178,
      "Ġrules": 4179,
      "Ġ()": 4180,
      "ĠDuke": 4181,
      "Ġ1993": 4182,
      "Ġprimarily": 4183,
      "oud": 4184,
      "ĠSir": 4185,
      "overy": 4186,
      "bed": 4187,
      "Ġhol": 4188,
      "Ġepisode": 4189,
      "Ġtherefore": 4190,
      "ĠGovernment": 4191,
      "hol": 4192,
      "Ġaddress": 4193,
      "ĠSum": 4194,
      "Ġthous": 4195,
      "ĠSecret": 4196,
      "Ġquestion": 4197,
      "Ġagric": 4198,
      "Why": 4199,
      "gar": 4200,
      "Ġsens": 4201,
      "opher": 4202,
      "orporated": 4203,
      "Ġmainly": 4204,
      "Ġgr": 4205,
      "ĠTom": 4206,
      "ĠVietn": 4207,
      "aland": 4208,
      "ĠOl": 4209,
      "olved": 4210,
      "Ġpreviously": 4211,
      "Ġliterature": 4212,
      "bury": 4213,
      "which": 4214,
      "Ġdead": 4215,
      "ĠDis": 4216,
      "ĠLord": 4217,
      "ĠFort": 4218,
      "yal": 4219,
      "Ġconstitution": 4220,
      "Ġanalysis": 4221,
      "New": 4222,
      "!!": 4223,
      "Ġhot": 4224,
      "ĠThat": 4225,
      "ĠOxford": 4226,
      "cean": 4227,
      "Ġmonth": 4228,
      "Ġir": 4229,
      "ĠMore": 4230,
      "ĠValley": 4231,
      "ĠSur": 4232,
      "Ġpotential": 4233,
      "ĠJust": 4234,
      "yth": 4235,
      "ĠÂ": 4236,
      "Ġwebs": 4237,
      "sw": 4238,
      "iform": 4239,
      "ĠDel": 4240,
      "Ph": 4241,
      "ĠSouthern": 4242,
      "Ġfif": 4243,
      "rief": 4244,
      "Ġparties": 4245,
      "35": 4246,
      "Ġplaying": 4247,
      "ĠColumb": 4248,
      "ĠTor": 4249,
      "Ð¾Ð¼Ñĥ": 4250,
      "Ġ60": 4251,
      "Ġmiddle": 4252,
      "Ġteams": 4253,
      "ried": 4254,
      "ils": 4255,
      "Ġ+": 4256,
      "Further": 4257,
      "ying": 4258,
      "Ġexc": 4259,
      "Ġ1989": 4260,
      "Ġstories": 4261,
      "Ġinvestig": 4262,
      "isms": 4263,
      "eds": 4264,
      "Ġprem": 4265,
      "amm": 4266,
      "ented": 4267,
      "Ġsongs": 4268,
      "Ġmemory": 4269,
      "with": 4270,
      "ĠJes": 4271,
      "Ð¸ÑĤÐµ": 4272,
      "oura": 4273,
      "ĠCommission": 4274,
      "Ġrare": 4275,
      "Ġresulting": 4276,
      "Ð°Ð³": 4277,
      "estic": 4278,
      "ospital": 4279,
      "hi": 4280,
      "ĠRail": 4281,
      "cles": 4282,
      "ĠRo": 4283,
      "Ð°Ð»Ð°": 4284,
      "Ġelectric": 4285,
      "urt": 4286,
      "ĠBudd": 4287,
      "ĠAlexander": 4288,
      "ibly": 4289,
      "Ġprobably": 4290,
      "tra": 4291,
      "Ġdrug": 4292,
      "Ġannual": 4293,
      "Ġsays": 4294,
      "Ġchief": 4295,
      "Ġacademic": 4296,
      "Ġfavor": 4297,
      "Ġbox": 4298,
      "ĠPenn": 4299,
      "Ġheavy": 4300,
      "ylv": 4301,
      "Pro": 4302,
      "Ġclimate": 4303,
      "Ġships": 4304,
      "ÐµÐ¶": 4305,
      "Ġmethods": 4306,
      "Ġsense": 4307,
      "Ġrepe": 4308,
      "igen": 4309,
      "Ġdistribution": 4310,
      "oys": 4311,
      "Ġcompared": 4312,
      "ĠSol": 4313,
      "ĠMusic": 4314,
      "86": 4315,
      "ĠÐ§": 4316,
      "illed": 4317,
      "Ġrapid": 4318,
      "Ġrepresented": 4319,
      "reng": 4320,
      "Ġscript": 4321,
      "fect": 4322,
      "ĠTwo": 4323,
      "Ġ180": 4324,
      "Ġsuggested": 4325,
      "ault": 4326,
      "Ð¸Ð½Ð°": 4327,
      "Ġcouncil": 4328,
      "ĠClass": 4329,
      "ption": 4330,
      "Ġexperience": 4331,
      "Ġindustrial": 4332,
      "Ġsuc": 4333,
      "Ġpattern": 4334,
      "Ġbecoming": 4335,
      "ograp": 4336,
      "Ġorganization": 4337,
      "ĠJean": 4338,
      "ÑģÑĤÑĢ": 4339,
      "Ġspl": 4340,
      "ĠLos": 4341,
      "ĠAsian": 4342,
      "ĠÐ»Ñİ": 4343,
      "ieval": 4344,
      "hens": 4345,
      "Ġexperiment": 4346,
      "Ġ1930": 4347,
      "mond": 4348,
      "Ġtable": 4349,
      "Ġ80": 4350,
      "Ġpil": 4351,
      "Ġdeaths": 4352,
      "ĠDou": 4353,
      "Ðļ": 4354,
      "ala": 4355,
      "ructed": 4356,
      "Ġcontrast": 4357,
      "Ġelections": 4358,
      "Ġnewsp": 4359,
      "ested": 4360,
      "Ġreligion": 4361,
      "ella": 4362,
      "Ġmedical": 4363,
      "Ġindependence": 4364,
      "ÐµÐ½ÑĤ": 4365,
      "ĠHaw": 4366,
      "Ġrelatively": 4367,
      "Ġmole": 4368,
      "Ġri": 4369,
      "Ġinitial": 4370,
      "ĠGroup": 4371,
      "ĠPoland": 4372,
      "Ġpurch": 4373,
      "Ġ:": 4374,
      "99": 4375,
      "azz": 4376,
      "Ġfailed": 4377,
      "75": 4378,
      "inger": 4379,
      "more": 4380,
      "Ġshot": 4381,
      "onent": 4382,
      "Ġintended": 4383,
      "ĠOrder": 4384,
      "aine": 4385,
      "Ġneeded": 4386,
      "Ġapproach": 4387,
      "Ġmathemat": 4388,
      "Ġdecision": 4389,
      "Ġtreatment": 4390,
      "ÑĪÐµ": 4391,
      "mission": 4392,
      "ta": 4393,
      "Ġbring": 4394,
      "Ġ1940": 4395,
      "Ġmales": 4396,
      "People": 4397,
      "When": 4398,
      "ĠUN": 4399,
      "Ġassum": 4400,
      "anda": 4401,
      "Ġexhib": 4402,
      "ĠWood": 4403,
      "Ġdegree": 4404,
      "ĠHung": 4405,
      "ĠDef": 4406,
      "ĠUnder": 4407,
      "Ġimpact": 4408,
      "Ġautom": 4409,
      "ĠJews": 4410,
      "Ġcells": 4411,
      "Ġinitially": 4412,
      "Ġbenef": 4413,
      "Ġmess": 4414,
      "Ġauthority": 4415,
      "col": 4416,
      "Ġrunning": 4417,
      "Ġ45": 4418,
      "Ġactivity": 4419,
      "onia": 4420,
      "Ġcontrovers": 4421,
      "Notes": 4422,
      "Ġadj": 4423,
      "Ġtrack": 4424,
      "Ġhours": 4425,
      "ĠNations": 4426,
      "iated": 4427,
      "edom": 4428,
      "ropolitan": 4429,
      "Ġrisk": 4430,
      "inem": 4431,
      "Ġdeep": 4432,
      "ĠAD": 4433,
      "osis": 4434,
      "Ġfarm": 4435,
      "Ġfrequently": 4436,
      "ounds": 4437,
      "uls": 4438,
      "ĠNA": 4439,
      "ĠÐł": 4440,
      "Ġyet": 4441,
      "imal": 4442,
      "rical": 4443,
      "Ġfort": 4444,
      "Ġimage": 4445,
      "Ġlif": 4446,
      "Ġfriends": 4447,
      "Ġsucceed": 4448,
      "Ġurban": 4449,
      "ĠHel": 4450,
      "ĠKar": 4451,
      "Ġvon": 4452,
      "Ġanimals": 4453,
      "ĠÐĳ": 4454,
      "reek": 4455,
      "Ġartist": 4456,
      "uing": 4457,
      "Ġarran": 4458,
      "ervation": 4459,
      "Ġonline": 4460,
      "ĠMel": 4461,
      "cher": 4462,
      "Ġtheore": 4463,
      "Ġknowledge": 4464,
      "ĠIslands": 4465,
      "aters": 4466,
      "ĠPublic": 4467,
      "Ġroyal": 4468,
      "Ġearth": 4469,
      "ĠMo": 4470,
      "orph": 4471,
      "Ġbr": 4472,
      "Ġscientific": 4473,
      "Ġsecurity": 4474,
      "ĠLuc": 4475,
      "va": 4476,
      "ansion": 4477,
      "fficient": 4478,
      "Ġforest": 4479,
      "Ġfiction": 4480,
      "usion": 4481,
      "Ġconne": 4482,
      "endar": 4483,
      "ĠZealand": 4484,
      "gor": 4485,
      "Ġacid": 4486,
      "ously": 4487,
      "ĠSpe": 4488,
      "ĠCup": 4489,
      "Ġclosed": 4490,
      "light": 4491,
      "inated": 4492,
      "Ġgirl": 4493,
      "Ġliber": 4494,
      "Ġdeclared": 4495,
      "ĠScience": 4496,
      "Ð½Ð¾Ð³Ð¾": 4497,
      "iplom": 4498,
      "95": 4499,
      "ĠMill": 4500,
      "edd": 4501,
      "Ġcomposed": 4502,
      "ancy": 4503,
      "Ġwinn": 4504,
      "Ġconqu": 4505,
      "Ġchemical": 4506,
      "ÑĥÐ±": 4507,
      "ette": 4508,
      "ĠOper": 4509,
      "oration": 4510,
      "Ġactivities": 4511,
      "ansas": 4512,
      "Ġreduced": 4513,
      "ĠNaz": 4514,
      "ĠCambridge": 4515,
      "ĠConf": 4516,
      "Ġsoldiers": 4517,
      "Ġtold": 4518,
      "Ġshare": 4519,
      "Ġlaunched": 4520,
      "Ġfourth": 4521,
      "Ġcitizens": 4522,
      "Ġsimple": 4523,
      "Ġoperating": 4524,
      "ĠÐ¶Ðµ": 4525,
      "Ġconv": 4526,
      "een": 4527,
      "Ġstarting": 4528,
      "Ġinterview": 4529,
      "85": 4530,
      "ĠMur": 4531,
      "Ġmurder": 4532,
      "Ġmom": 4533,
      "abeth": 4534,
      "Ġsimply": 4535,
      "Ġability": 4536,
      "Ġremaining": 4537,
      "ois": 4538,
      "Ð¸Ð»Ð¸": 4539,
      "ĠPan": 4540,
      "Ġcommission": 4541,
      "Ġcourse": 4542,
      "mitted": 4543,
      "Ġ1988": 4544,
      "Ġ1986": 4545,
      "Ġsexual": 4546,
      "ĠHa": 4547,
      "ĠLife": 4548,
      "By": 4549,
      "Ġdecre": 4550,
      "ception": 4551,
      "Ġwanted": 4552,
      "Ġinhab": 4553,
      "ny": 4554,
      "ĠÎ": 4555,
      "ctr": 4556,
      "ani": 4557,
      "Ġbelief": 4558,
      "Some": 4559,
      "Ġpresence": 4560,
      "Ġfootballer": 4561,
      "ĠÐ±ÑĥÐ´": 4562,
      "Ġrot": 4563,
      "Ġice": 4564,
      "Ġcat": 4565,
      "Ġstreng": 4566,
      "ĠWal": 4567,
      "Ġjob": 4568,
      "ĠFilm": 4569,
      "ube": 4570,
      "Ġstations": 4571,
      "Ġface": 4572,
      "Ġleaders": 4573,
      "atur": 4574,
      "Ġreign": 4575,
      "ĠHow": 4576,
      "Ġcry": 4577,
      "ÐĶ": 4578,
      "obile": 4579,
      "Ġoffered": 4580,
      "Ġdirection": 4581,
      "ĠPeople": 4582,
      "Ġdistance": 4583,
      "Ġdemand": 4584,
      "acc": 4585,
      "Ġmagazine": 4586,
      "ĠGeorg": 4587,
      "isted": 4588,
      "Ġextended": 4589,
      "Ġaccepted": 4590,
      "Ġasked": 4591,
      "Ġpun": 4592,
      "Ġconstant": 4593,
      "Ġspeech": 4594,
      "ĠÐ¼Ð½Ðµ": 4595,
      "DP": 4596,
      "Ġagreed": 4597,
      "Ġrise": 4598,
      "edia": 4599,
      "Ġthings": 4600,
      "45": 4601,
      "odies": 4602,
      "Ġplants": 4603,
      "Ġheart": 4604,
      "Ġdespite": 4605,
      "Ġmatch": 4606,
      "gent": 4607,
      "Ġblock": 4608,
      "Ġconsists": 4609,
      "Ġmodels": 4610,
      "Ġfigure": 4611,
      "Ġhy": 4612,
      "Ġcomment": 4613,
      "ĠBrown": 4614,
      "Ġclassical": 4615,
      "Ġapplied": 4616,
      "Ġmachine": 4617,
      "ographic": 4618,
      "cluding": 4619,
      "Ġequal": 4620,
      "ĠBor": 4621,
      "rong": 4622,
      "Ġalone": 4623,
      "izes": 4624,
      "Ġrestrict": 4625,
      "Ġobjects": 4626,
      "Ġsymbol": 4627,
      "Ġresponsible": 4628,
      "uan": 4629,
      "ĠIll": 4630,
      "phas": 4631,
      "Ġturned": 4632,
      "Ġgraph": 4633,
      "Ġreference": 4634,
      "Ġquickly": 4635,
      "Ġchall": 4636,
      "ĠSil": 4637,
      "Ġidentified": 4638,
      "ĠPo": 4639,
      "ees": 4640,
      "ĠPre": 4641,
      "Ġhistorian": 4642,
      "ĠAngeles": 4643,
      "Ġnative": 4644,
      "Ġethnic": 4645,
      "ully": 4646,
      "ĠBu": 4647,
      "ĠBern": 4648,
      "Sc": 4649,
      "thing": 4650,
      "ĠGo": 4651,
      "ĠBrazil": 4652,
      "Sh": 4653,
      "ĠJac": 4654,
      "Ġwebsite": 4655,
      "gram": 4656,
      "Ġ1984": 4657,
      "Ġarticle": 4658,
      "65": 4659,
      "Ġ1920": 4660,
      "Ġdivision": 4661,
      "lection": 4662,
      "Ġ1987": 4663,
      "Ġcollect": 4664,
      "Ġsports": 4665,
      "ĠTreat": 4666,
      "sk": 4667,
      "otic": 4668,
      "Ðķ": 4669,
      "Ġcreation": 4670,
      "Ġrecords": 4671,
      "Ġdefeated": 4672,
      "ĠTimes": 4673,
      "Ġlearn": 4674,
      "ĠAngl": 4675,
      "Ġslow": 4676,
      "ĠTechn": 4677,
      "house": 4678,
      "Â°": 4679,
      "Ġsubs": 4680,
      "wan": 4681,
      "ĠÐĶÐ°": 4682,
      "ĠNap": 4683,
      "Ġancest": 4684,
      "ĠMem": 4685,
      "ĠHighway": 4686,
      "Ġx": 4687,
      "rie": 4688,
      "47": 4689,
      "da": 4690,
      "oir": 4691,
      "ĠPope": 4692,
      "Ġsen": 4693,
      "Ġmanagement": 4694,
      "vement": 4695,
      "Ġreject": 4696,
      "Ġtarget": 4697,
      "Ġcurrently": 4698,
      "Ġastron": 4699,
      "ressive": 4700,
      "ĠÐºÐ¾": 4701,
      "ĠFlor": 4702,
      "Ġextra": 4703,
      "ĠNob": 4704,
      "Ġactually": 4705,
      "Ġmis": 4706,
      "urb": 4707,
      "Ġappearance": 4708,
      "Ġcontact": 4709,
      "33": 4710,
      "Ġut": 4711,
      "Ġ1985": 4712,
      "ĠTele": 4713,
      "ĠWars": 4714,
      "ĠOtt": 4715,
      "Ġinfluenced": 4716,
      "ĠPrize": 4717,
      "ĠAmericans": 4718,
      "Ġpal": 4719,
      "ĠTre": 4720,
      "Ġargued": 4721,
      "Ġ1979": 4722,
      "\"),": 4723,
      "Pl": 4724,
      "ady": 4725,
      "Ġmatter": 4726,
      "iques": 4727,
      "Ind": 4728,
      "hesis": 4729,
      "Ġlabor": 4730,
      "Ġpowers": 4731,
      "ÑĥÐ»": 4732,
      "rect": 4733,
      "ĠScottish": 4734,
      "Ġstars": 4735,
      "Ġclaims": 4736,
      "ĠÐĿÑĥ": 4737,
      "Ġprotect": 4738,
      "Ġvictory": 4739,
      "eria": 4740,
      "Ġ1968": 4741,
      "Ġhundred": 4742,
      "ĠCensus": 4743,
      "ĠIran": 4744,
      "ducation": 4745,
      "ĠÐµÐ³Ð¾": 4746,
      "Ġregional": 4747,
      "Ġmaxim": 4748,
      "herlands": 4749,
      "Ġadministration": 4750,
      "Ġamb": 4751,
      "vert": 4752,
      "ipment": 4753,
      "Ġpresented": 4754,
      "ĠAnother": 4755,
      "Ġdim": 4756,
      "Ġletters": 4757,
      "BA": 4758,
      "Ġoccurred": 4759,
      "Ġversions": 4760,
      "Ġderived": 4761,
      "Ġ35": 4762,
      "ittle": 4763,
      "Ġflag": 4764,
      "Ġsignal": 4765,
      "Ð½Ñı": 4766,
      "ĠNative": 4767,
      "add": 4768,
      "ÐºÐµ": 4769,
      "ylvania": 4770,
      "Ġresulted": 4771,
      "Ġdouble": 4772,
      "Ġproperties": 4773,
      "SC": 4774,
      "Ġroute": 4775,
      "ĠArea": 4776,
      "64": 4777,
      "Ġcompar": 4778,
      "ĠService": 4779,
      "pired": 4780,
      "Ġlic": 4781,
      "Ġglobal": 4782,
      "Ġhousing": 4783,
      "ĠAnton": 4784,
      "istry": 4785,
      "Ġ1972": 4786,
      "Ġaspect": 4787,
      "elligence": 4788,
      "Ġattrib": 4789,
      "Ġ1983": 4790,
      "arents": 4791,
      "ĠSqu": 4792,
      "Ġ1982": 4793,
      "Ġresidents": 4794,
      "Ġequival": 4795,
      "Ġpresidential": 4796,
      "Ġallows": 4797,
      "Ġbrief": 4798,
      "arters": 4799,
      "Ġrespectively": 4800,
      "Ġgoing": 4801,
      "Ġmut": 4802,
      "Ġvalues": 4803,
      "Ġquality": 4804,
      "ĠStan": 4805,
      "Ġserve": 4806,
      "Ġoperation": 4807,
      "Ġagreement": 4808,
      "Ġspirit": 4809,
      "Ġpositive": 4810,
      "Ġminister": 4811,
      "osa": 4812,
      "Ġcombined": 4813,
      "Ġsac": 4814,
      "ĠTheir": 4815,
      "Ġdu": 4816,
      "Ġnormal": 4817,
      "ken": 4818,
      "bur": 4819,
      "ĠBal": 4820,
      "Ġislands": 4821,
      "ogue": 4822,
      "ĠDi": 4823,
      "ĠLong": 4824,
      "acing": 4825,
      "ĠLee": 4826,
      "isco": 4827,
      "ĠAirport": 4828,
      "ĠJohnson": 4829,
      "Ġruns": 4830,
      "ĠCro": 4831,
      "uer": 4832,
      "Ġleague": 4833,
      "ĠInc": 4834,
      "Ġretain": 4835,
      "Ġ1976": 4836,
      "odox": 4837,
      "yer": 4838,
      "osc": 4839,
      "ersey": 4840,
      "Ġflu": 4841,
      "ĠAv": 4842,
      "Ġtowns": 4843,
      "Ġec": 4844,
      "Ġfinally": 4845,
      "Ġ#": 4846,
      "aught": 4847,
      "Ġdedic": 4848,
      "ĠNot": 4849,
      "ĠSo": 4850,
      "BM": 4851,
      "ĠCommon": 4852,
      "Ġpoll": 4853,
      "aily": 4854,
      "thur": 4855,
      "ĠWall": 4856,
      "dis": 4857,
      "Ġflow": 4858,
      "ĠÐĹ": 4859,
      "Ġformal": 4860,
      "Ġcapac": 4861,
      "ĠRel": 4862,
      "Ġcritical": 4863,
      "ĠSocial": 4864,
      "ĠWales": 4865,
      "ortun": 4866,
      "ĠCross": 4867,
      "ĠÑģÐ¼": 4868,
      "Ġearliest": 4869,
      "Ġopening": 4870,
      "Ġawarded": 4871,
      "Ġbor": 4872,
      "force": 4873,
      "osen": 4874,
      "ĠPhilip": 4875,
      "Ġscene": 4876,
      "ĠÑįÑĤ": 4877,
      "Ġburn": 4878,
      "Ġcondition": 4879,
      "Ġcontinue": 4880,
      "apers": 4881,
      "unction": 4882,
      "Ġremoved": 4883,
      "aging": 4884,
      "Ġmig": 4885,
      "Ġplays": 4886,
      "Ġnews": 4887,
      "bra": 4888,
      "ĠScotland": 4889,
      "Ġhelped": 4890,
      "How": 4891,
      "Ġways": 4892,
      "Early": 4893,
      "ĠÐ£": 4894,
      "Ġ1945": 4895,
      "Ġimpl": 4896,
      "ĠTime": 4897,
      "Ġexpected": 4898,
      "mas": 4899,
      "rence": 4900,
      "Sp": 4901,
      "ĠBoth": 4902,
      "ĠTri": 4903,
      "Ġgiving": 4904,
      "Ġ1975": 4905,
      "AC": 4906,
      "la": 4907,
      "Ġinn": 4908,
      "Ġ1974": 4909,
      "ST": 4910,
      "Ġexpansion": 4911,
      "Ġnecessary": 4912,
      "iring": 4913,
      "venue": 4914,
      "Ġwear": 4915,
      "Ð½ÑĭÐµ": 4916,
      "%)": 4917,
      "ĠTim": 4918,
      "ĠPen": 4919,
      "Ġweight": 4920,
      "agon": 4921,
      "Ð½Ð°Ñı": 4922,
      "tar": 4923,
      "Ġpp": 4924,
      "anguage": 4925,
      "Ġmix": 4926,
      "Ġarrest": 4927,
      "ĠStep": 4928,
      "town": 4929,
      "ĠDire": 4930,
      "tical": 4931,
      "Ġmaterials": 4932,
      "Ġbillion": 4933,
      "Ġblue": 4934,
      "ione": 4935,
      "Ġgives": 4936,
      "erse": 4937,
      "ithm": 4938,
      "eks": 4939,
      "Ġcalendar": 4940,
      "Ġaim": 4941,
      "Ġnotable": 4942,
      "Ġmeeting": 4943,
      "Ġefforts": 4944,
      "Ġdiplom": 4945,
      "Ġentered": 4946,
      "Ġcarbon": 4947,
      "ih": 4948,
      "ÑıÑĤÑĮ": 4949,
      "encies": 4950,
      "Ġattacks": 4951,
      "\").": 4952,
      "range": 4953,
      "ĠEp": 4954,
      "Ġmovie": 4955,
      "irds": 4956,
      "ÅĤ": 4957,
      "Ġdestroyed": 4958,
      "Ġvoice": 4959,
      "ĠJo": 4960,
      "Ġhere": 4961,
      "Ðĺ": 4962,
      "ÑĤÐµ": 4963,
      "Ġcontent": 4964,
      "ĠSub": 4965,
      "ura": 4966,
      "Ġpack": 4967,
      "izabeth": 4968,
      "Ġadapt": 4969,
      "Ġkingdom": 4970,
      "ĠSk": 4971,
      "Ð¸ÑģÑĮ": 4972,
      "ĠBank": 4973,
      "Ġissued": 4974,
      "Ġserious": 4975,
      "Ġideas": 4976,
      "ĠVen": 4977,
      "everal": 4978,
      "Ġdog": 4979,
      "Ġ64": 4980,
      "Ġdifference": 4981,
      "arden": 4982,
      "uated": 4983,
      "Ġpowerful": 4984,
      "ĠNetherlands": 4985,
      "Ġ1969": 4986,
      "comp": 4987,
      "ĠOffice": 4988,
      "stra": 4989,
      "ĠResearch": 4990,
      "ouri": 4991,
      "claim": 4992,
      "ĠBul": 4993,
      "Ġcle": 4994,
      "ĠDivision": 4995,
      "Is": 4996,
      "Ġopposed": 4997,
      "Ġ1973": 4998,
      "If": 4999,
      "Ġopposition": 5000,
      "velopment": 5001,
      "ĠIV": 5002,
      "Ġcrew": 5003,
      "ĠÐ½Ð¾": 5004,
      "Ð¸ÑģÑĤ": 5005,
      "ĠKent": 5006,
      "Ġimmig": 5007,
      "orter": 5008,
      "ocks": 5009,
      "Ġordered": 5010,
      "Ġdro": 5011,
      "Ġspent": 5012,
      "Ġtree": 5013,
      "asy": 5014,
      "ishes": 5015,
      "Ġstudent": 5016,
      "Ġ1981": 5017,
      "Ġinside": 5018,
      "Ġvirt": 5019,
      "umber": 5020,
      "Ġleaving": 5021,
      "Ġconcer": 5022,
      "gn": 5023,
      "Ð¸Ð²Ð°ÐµÑĤ": 5024,
      "Ġofficially": 5025,
      "wise": 5026,
      "ĠBow": 5027,
      "Ð¾ÑĤÑĢ": 5028,
      "ĠKenn": 5029,
      "Ġcomes": 5030,
      "iano": 5031,
      "vis": 5032,
      "agan": 5033,
      "FL": 5034,
      "Ġcart": 5035,
      "ĠMcC": 5036,
      "amin": 5037,
      "Ġprominent": 5038,
      "ĠOh": 5039,
      "88": 5040,
      "ĠTem": 5041,
      "Ġ1967": 5042,
      "adium": 5043,
      "Ġfell": 5044,
      "Ġmanager": 5045,
      "overs": 5046,
      "Ġplat": 5047,
      "Ġshoot": 5048,
      "erc": 5049,
      "Ġmunicip": 5050,
      "32": 5051,
      "Ġflight": 5052,
      "Ġmedic": 5053,
      "ĠÑĥÐ¶": 5054,
      "akistan": 5055,
      "Ġcomplet": 5056,
      "ighter": 5057,
      "Ġinstrument": 5058,
      "Ð°Ñħ": 5059,
      "Ġnine": 5060,
      "Ġweapons": 5061,
      "37": 5062,
      "igan": 5063,
      "Ġran": 5064,
      "Ġworkers": 5065,
      "ÑĭÐµ": 5066,
      "Ġ1971": 5067,
      "thodox": 5068,
      "rons": 5069,
      "ns": 5070,
      "ĠPlay": 5071,
      "Ġbasic": 5072,
      "ĠBab": 5073,
      "zant": 5074,
      "ĠLater": 5075,
      "Ġrecognized": 5076,
      "ĠConstitution": 5077,
      "inian": 5078,
      "36": 5079,
      "Ġax": 5080,
      "ĠJim": 5081,
      "Ġequipment": 5082,
      "ds": 5083,
      "Ġsettlement": 5084,
      "Ġ70": 5085,
      "Ġreplace": 5086,
      "ĠBBC": 5087,
      "andon": 5088,
      "Ġeffective": 5089,
      "ĪĴ": 5090,
      "Ġ1964": 5091,
      "Ġprime": 5092,
      "ackson": 5093,
      "outheast": 5094,
      "ĠClub": 5095,
      "Ġdefinition": 5096,
      "Ġemphas": 5097,
      "Ġindu": 5098,
      "ĠHoly": 5099,
      "icit": 5100,
      "Ġhumans": 5101,
      "ĠÐŁÑĢ": 5102,
      "itable": 5103,
      "Ġund": 5104,
      "Ġallowing": 5105,
      "ID": 5106,
      "Ġoccurs": 5107,
      "Ġracial": 5108,
      "Ġgreen": 5109,
      "Ġinterpret": 5110,
      "ĠPost": 5111,
      "Ġsaying": 5112,
      "Ġinternal": 5113,
      "Ġhonor": 5114,
      "Ġstructures": 5115,
      "RA": 5116,
      "89": 5117,
      "ĠCle": 5118,
      "ĠUp": 5119,
      "Ġmuseum": 5120,
      "life": 5121,
      "Ġneut": 5122,
      "Ġapplications": 5123,
      "ĠÑģÐ²Ð¾": 5124,
      "Ġweeks": 5125,
      "ĠAge": 5126,
      "Ġtend": 5127,
      "kins": 5128,
      "Ġpoly": 5129,
      "2000": 5130,
      "ĠNic": 5131,
      "cluded": 5132,
      "Ġimmediately": 5133,
      "ĠGar": 5134,
      "Ġresources": 5135,
      "Ġmind": 5136,
      "Ġmonarch": 5137,
      "ĠBet": 5138,
      "Ġuns": 5139,
      "Ġconnected": 5140,
      "ĠÐ³Ð¾Ð²Ð¾ÑĢÐ¸ÑĤ": 5141,
      "Ġfast": 5142,
      "Ð¸Ð³": 5143,
      "Ġupper": 5144,
      "Ġtrump": 5145,
      "rations": 5146,
      "âĢĿ": 5147,
      "Ġfish": 5148,
      "ounder": 5149,
      "Ġplans": 5150,
      "Ġcerem": 5151,
      "ĠĠĠ": 5152,
      "Ġenem": 5153,
      "Ġvillage": 5154,
      "lav": 5155,
      "Ġstay": 5156,
      "works": 5157,
      "ĠLab": 5158,
      "EC": 5159,
      "ĠCommittee": 5160,
      "inate": 5161,
      "Ġeffic": 5162,
      "Ġmill": 5163,
      "pper": 5164,
      "ervative": 5165,
      "Ġbal": 5166,
      "Ġbranch": 5167,
      "Ġnotes": 5168,
      "Ġphen": 5169,
      "Ġgain": 5170,
      "Ġcoach": 5171,
      "ĠJeff": 5172,
      "Ġetc": 5173,
      "Ġ1978": 5174,
      "Ġoldest": 5175,
      "ĠConstant": 5176,
      "ĠGovernor": 5177,
      "Ġexamples": 5178,
      "34": 5179,
      "One": 5180,
      "Ġneighbor": 5181,
      "ĠSenate": 5182,
      "isher": 5183,
      "Ġwithd": 5184,
      "Ġfeel": 5185,
      "Ġwave": 5186,
      "Ġdefeat": 5187,
      "uting": 5188,
      "rm": 5189,
      "Ġcontemporary": 5190,
      "Ġfer": 5191,
      "Ġcru": 5192,
      "Ġstra": 5193,
      "can": 5194,
      "Ġunknown": 5195,
      "Ġcharge": 5196,
      "Ġbelong": 5197,
      "ĠExp": 5198,
      "ev": 5199,
      "haps": 5200,
      "Ġraised": 5201,
      "ety": 5202,
      "Ġmarked": 5203,
      "rat": 5204,
      "oles": 5205,
      "Ġpolitics": 5206,
      "Ġsites": 5207,
      "Ġfollows": 5208,
      "ĠFestival": 5209,
      "Ġgrowing": 5210,
      "Ġgrew": 5211,
      "Ġmentioned": 5212,
      "Ã§": 5213,
      "Ġdistingu": 5214,
      "Ġowned": 5215,
      "ĠÐºÐ¾Ð³Ð´Ð°": 5216,
      "imb": 5217,
      "ĠTurk": 5218,
      "sylvania": 5219,
      "ĠInternet": 5220,
      "Ġdomestic": 5221,
      "vard": 5222,
      "Ġrefers": 5223,
      "Ġexistence": 5224,
      "Ġlisted": 5225,
      "97": 5226,
      "Ġadult": 5227,
      "Ġdepart": 5228,
      "iled": 5229,
      "Ġjur": 5230,
      "Ġcontaining": 5231,
      "Ġadvant": 5232,
      "Ġplanned": 5233,
      "ĠBob": 5234,
      "Ġple": 5235,
      "ĠEconom": 5236,
      "87": 5237,
      "throp": 5238,
      "aped": 5239,
      "uese": 5240,
      "ĠÐ¼Ð¾Ð¶": 5241,
      "ĠHisp": 5242,
      "Ġheat": 5243,
      "Ġbelieve": 5244,
      "Ġleave": 5245,
      "ĠJack": 5246,
      "aph": 5247,
      "Ġfully": 5248,
      "'m": 5249,
      "Ġcoal": 5250,
      "ifically": 5251,
      "Ġperman": 5252,
      "ĠFederal": 5253,
      "Ġsets": 5254,
      "Ġpict": 5255,
      "Ġdynasty": 5256,
      "ĠFreder": 5257,
      "kin": 5258,
      "uses": 5259,
      "osh": 5260,
      "',": 5261,
      "Ġcomposition": 5262,
      "hedral": 5263,
      "96": 5264,
      "English": 5265,
      "risis": 5266,
      "ÑĤÐ¾Ð±": 5267,
      "urrent": 5268,
      "Ġuniform": 5269,
      "ĠFour": 5270,
      "Ġharm": 5271,
      "ĠFar": 5272,
      "actions": 5273,
      "Ġ1965": 5274,
      "Ġobserved": 5275,
      "ĠCarolina": 5276,
      "Ġphilosophy": 5277,
      "Ġprep": 5278,
      "Ġrefused": 5279,
      "Ġlimit": 5280,
      "Ġcollege": 5281,
      "Ġprovince": 5282,
      "ador": 5283,
      "Ġlands": 5284,
      "Ġsister": 5285,
      "icon": 5286,
      "ĠElizabeth": 5287,
      "Ġvary": 5288,
      "Ġofficer": 5289,
      "Ġfigures": 5290,
      "Ġalternative": 5291,
      "Ġstop": 5292,
      "Ġgot": 5293,
      "Ġpurpose": 5294,
      "oma": 5295,
      "ĠDar": 5296,
      "ĠSpace": 5297,
      "ĠSing": 5298,
      "ĠMen": 5299,
      "ĠLu": 5300,
      "ĠFound": 5301,
      "Ġnegot": 5302,
      "overty": 5303,
      "Ġillust": 5304,
      "Ġorganizations": 5305,
      "Ġparents": 5306,
      "uty": 5307,
      "Ġattention": 5308,
      "Ġsubsequently": 5309,
      "ĠAlbert": 5310,
      "Ġ32": 5311,
      "Ġavoid": 5312,
      "Ġsynt": 5313,
      "Ġarrived": 5314,
      "ĠDespite": 5315,
      "Ġseem": 5316,
      "Ġreach": 5317,
      "ĠSwedish": 5318,
      "urches": 5319,
      "94": 5320,
      "Ġregarded": 5321,
      "ĠLew": 5322,
      "Ġrang": 5323,
      "ĠTreaty": 5324,
      "Ġportray": 5325,
      "Ġinspired": 5326,
      "Con": 5327,
      "Ð°Ð±Ð¾ÑĤ": 5328,
      "racy": 5329,
      "Ġ90": 5330,
      "Ġportion": 5331,
      "Ġsplit": 5332,
      "under": 5333,
      "mann": 5334,
      "Ġ1977": 5335,
      "ĠCorn": 5336,
      "Ġgun": 5337,
      "Ġcaptured": 5338,
      "Ġarchitecture": 5339,
      "orders": 5340,
      "allel": 5341,
      "Ġdra": 5342,
      "ĠBre": 5343,
      "ĠJones": 5344,
      "TV": 5345,
      "Ġemperor": 5346,
      "Ð¢": 5347,
      "Ġtried": 5348,
      "Ġscale": 5349,
      "iro": 5350,
      "Ġrevolution": 5351,
      "ĠVietnam": 5352,
      "amber": 5353,
      "ĠOver": 5354,
      "water": 5355,
      "Ġhouses": 5356,
      "ÑĢÐ°ÑĪ": 5357,
      "ĠCat": 5358,
      "Ġrecomm": 5359,
      "Ġshowed": 5360,
      "Ġcompletely": 5361,
      "Ġresistance": 5362,
      "Ġabandon": 5363,
      "Ġ)": 5364,
      "Ġstaff": 5365,
      "Ġgained": 5366,
      "Ġslight": 5367,
      "no": 5368,
      "Ġhero": 5369,
      "acher": 5370,
      "amily": 5371,
      "Ġstudio": 5372,
      "Ġbey": 5373,
      "uate": 5374,
      "achus": 5375,
      "comm": 5376,
      "United": 5377,
      "teen": 5378,
      "ĠOrgan": 5379,
      "Ġpra": 5380,
      "icks": 5381,
      "Ġofficers": 5382,
      "mosp": 5383,
      "enty": 5384,
      "Ġ44": 5385,
      "ĠBig": 5386,
      "Ġsomeone": 5387,
      "ava": 5388,
      "Ġdepend": 5389,
      "Ġsearch": 5390,
      "Ġcompetition": 5391,
      "ĠByzant": 5392,
      "Ġrain": 5393,
      "Ġbehavior": 5394,
      "Ġexchange": 5395,
      "formed": 5396,
      "31": 5397,
      "Ġdrum": 5398,
      "Ġmoving": 5399,
      "Ġinstance": 5400,
      "Ġunique": 5401,
      "Ġnegative": 5402,
      "olt": 5403,
      "ĠAdm": 5404,
      "Ġapparent": 5405,
      "ĠÐ´ÐµÐ»": 5406,
      "Ġ1966": 5407,
      "Ġchap": 5408,
      "38": 5409,
      "ĠThus": 5410,
      "class": 5411,
      "Ġgoal": 5412,
      "55": 5413,
      "Ġfrequency": 5414,
      "wing": 5415,
      "Ġexact": 5416,
      "ĠBure": 5417,
      "Ġwrite": 5418,
      "ĠFlorida": 5419,
      "opes": 5420,
      "Ġapplication": 5421,
      "Ġdecades": 5422,
      "ĠWilliams": 5423,
      "Mus": 5424,
      "Ġiron": 5425,
      "ĠMu": 5426,
      "ĠAbout": 5427,
      "ĠFrancisco": 5428,
      "ÐµÑĨ": 5429,
      "ĠSecretary": 5430,
      "Ġgovernor": 5431,
      "ĠBerlin": 5432,
      "mat": 5433,
      "Ð»Ñİ": 5434,
      "ĠUnivers": 5435,
      "down": 5436,
      "ulate": 5437,
      "ĠBuddh": 5438,
      "iments": 5439,
      "Ã³n": 5440,
      "=\"": 5441,
      "poration": 5442,
      "ĠBroad": 5443,
      "cient": 5444,
      "With": 5445,
      "Ġoverall": 5446,
      "Ġcollabor": 5447,
      "Ġevolution": 5448,
      "66": 5449,
      "rog": 5450,
      "ĠPennsylvania": 5451,
      "ĠTw": 5452,
      "ĠEle": 5453,
      "ĠAlf": 5454,
      "Ġcauses": 5455,
      "ĠGreece": 5456,
      "Ġformation": 5457,
      "ĠMic": 5458,
      "ĠBell": 5459,
      "oken": 5460,
      "equ": 5461,
      "ĠAdd": 5462,
      "ilms": 5463,
      "erved": 5464,
      "Ġdark": 5465,
      "ĠYou": 5466,
      "Ġexpress": 5467,
      "Ġtechniques": 5468,
      "ĠAlso": 5469,
      "ĠAtlantic": 5470,
      "stone": 5471,
      "inity": 5472,
      "Ġfuel": 5473,
      "Ġhun": 5474,
      "Ġwinter": 5475,
      "iced": 5476,
      "ĠÑģÐ°Ð¼": 5477,
      "Ġgreatest": 5478,
      "Ġgranted": 5479,
      "ĠArts": 5480,
      "ĠRog": 5481,
      "Ġrecently": 5482,
      "ĠPakistan": 5483,
      "onym": 5484,
      "ctors": 5485,
      "sen": 5486,
      "etball": 5487,
      "oln": 5488,
      "Ð»ÐµÐ½": 5489,
      "Ġorganized": 5490,
      "Ġmedieval": 5491,
      "Ġconstructed": 5492,
      "ĠVan": 5493,
      "Ġwinning": 5494,
      "ĠSar": 5495,
      "Ġsn": 5496,
      "Comm": 5497,
      "Ġalle": 5498,
      "ĠElect": 5499,
      "Ġsomething": 5500,
      "wa": 5501,
      "Ġsubsequent": 5502,
      "Ð¸Ð±": 5503,
      "Ġkept": 5504,
      "Ġprotection": 5505,
      "ĠJersey": 5506,
      "ĠÐĵ": 5507,
      "Ġtex": 5508,
      "lers": 5509,
      "ĠCoast": 5510,
      "Ġyoun": 5511,
      "Ġreaction": 5512,
      "Ġattempted": 5513,
      "ĠBat": 5514,
      "lar": 5515,
      "icians": 5516,
      "Ġarms": 5517,
      "nce": 5518,
      "Ġhands": 5519,
      "Ġbeyond": 5520,
      "Ġcorn": 5521,
      "Ġidentity": 5522,
      "Ġoperated": 5523,
      "itage": 5524,
      "Ġphase": 5525,
      "acent": 5526,
      "Ġalgor": 5527,
      "77": 5528,
      "98": 5529,
      "tainment": 5530,
      "Ġexpressed": 5531,
      "ĠProv": 5532,
      "Ġvan": 5533,
      "ĠHan": 5534,
      "Ġdescript": 5535,
      "Ġreduce": 5536,
      "uts": 5537,
      "ĠHor": 5538,
      "Ġjoint": 5539,
      "Ġexpanded": 5540,
      "era": 5541,
      "ĠJackson": 5542,
      "ĠColumbia": 5543,
      "otion": 5544,
      "Ġsequence": 5545,
      "Ġsituation": 5546,
      "Ġqual": 5547,
      "Ġunc": 5548,
      "Ġwalk": 5549,
      "Ġdedicated": 5550,
      "ĠâĢľ": 5551,
      "Ġprovin": 5552,
      "Ġfactors": 5553,
      "ĠPalest": 5554,
      "Ġwealth": 5555,
      "Ġbit": 5556,
      "ĠGall": 5557,
      "Ġdevice": 5558,
      "Ġmotion": 5559,
      "Ġanimal": 5560,
      "BS": 5561,
      "ĠTro": 5562,
      "III": 5563,
      "Ġdigital": 5564,
      "Ġvolume": 5565,
      "Ġbegins": 5566,
      "zer": 5567,
      "aming": 5568,
      "ructure": 5569,
      "ĠGame": 5570,
      "ĠStat": 5571,
      "Ġsupply": 5572,
      "Ġsun": 5573,
      "zech": 5574,
      "ĠRecords": 5575,
      "aling": 5576,
      "Ġbond": 5577,
      "Ġbirths": 5578,
      "ocol": 5579,
      "ĠGames": 5580,
      "Ġfr": 5581,
      "ora": 5582,
      "oring": 5583,
      "etts": 5584,
      "Ġparliament": 5585,
      "inois": 5586,
      "Ġpron": 5587,
      "Ġmeant": 5588,
      "eral": 5589,
      "Ġovers": 5590,
      "Ġinstitutions": 5591,
      "ĠRh": 5592,
      "44": 5593,
      "rates": 5594,
      "ghan": 5595,
      "ĠRadio": 5596,
      "ĠMajor": 5597,
      "ÑĢÐ¾Ñģ": 5598,
      "500": 5599,
      "Ð»Ðµ": 5600,
      "Ġconsequ": 5601,
      "iral": 5602,
      "Ġcreating": 5603,
      "Ġfelt": 5604,
      "TA": 5605,
      "Ġattra": 5606,
      "rec": 5607,
      "Ġbad": 5608,
      "Ġsail": 5609,
      "ictional": 5610,
      "ifying": 5611,
      "Ġhap": 5612,
      "book": 5613,
      "ĠOut": 5614,
      "ĠCy": 5615,
      "Ġfields": 5616,
      "ĠPortuguese": 5617,
      "Ġprogramming": 5618,
      "From": 5619,
      "IC": 5620,
      "Ġrailway": 5621,
      "Ġextrem": 5622,
      "ĠBecause": 5623,
      "gg": 5624,
      "rants": 5625,
      "Ġrecording": 5626,
      "Ġdamage": 5627,
      "ĠÐ´ÑĢÑĥÐ³": 5628,
      "92": 5629,
      "Although": 5630,
      "gal": 5631,
      "ibli": 5632,
      "kes": 5633,
      "oston": 5634,
      "lies": 5635,
      "ĠHistoric": 5636,
      "ĠHuman": 5637,
      "Ġestablishments": 5638,
      "Bl": 5639,
      "ĠSupreme": 5640,
      "ĠWater": 5641,
      "Ġwhy": 5642,
      "Ã¡n": 5643,
      "ĠMov": 5644,
      "ĠÐºÐ¾ÑĤÐ¾ÑĢ": 5645,
      "ĠTheatre": 5646,
      "aks": 5647,
      "eed": 5648,
      "such": 5649,
      "dess": 5650,
      "Ġseek": 5651,
      "igenous": 5652,
      "omy": 5653,
      "aria": 5654,
      "heim": 5655,
      "76": 5656,
      "Ġcho": 5657,
      "Ġbaseball": 5658,
      "Ġconducted": 5659,
      "Ġaccomp": 5660,
      "ĠSand": 5661,
      "Ġpoverty": 5662,
      "amples": 5663,
      "ieties": 5664,
      "Ġsle": 5665,
      "Ġcontinuous": 5666,
      "Ġrates": 5667,
      "Ġnearby": 5668,
      "point": 5669,
      "entially": 5670,
      "iate": 5671,
      "Ġextensive": 5672,
      "Ġsought": 5673,
      "Ġinvasion": 5674,
      "Ġcovered": 5675,
      "Ġregist": 5676,
      "incoln": 5677,
      "Ġsurrounding": 5678,
      "Ġrough": 5679,
      "agement": 5680,
      "Ġprojects": 5681,
      "sex": 5682,
      "Ġsport": 5683,
      "ensions": 5684,
      "ening": 5685,
      "Ġterritories": 5686,
      "ĠAssembly": 5687,
      "Ġactions": 5688,
      "Ġ1963": 5689,
      "Ġconvers": 5690,
      "Ġrespond": 5691,
      "iner": 5692,
      "itness": 5693,
      "raq": 5694,
      "Ġpainter": 5695,
      "Ġsuffered": 5696,
      "Ġelse": 5697,
      "ĠCub": 5698,
      "ruit": 5699,
      "also": 5700,
      "Ġbridge": 5701,
      "PA": 5702,
      "Ġminutes": 5703,
      "ographer": 5704,
      "Ġ1962": 5705,
      "Ġfeat": 5706,
      "ĠAbb": 5707,
      "Ġbul": 5708,
      "ĠSweden": 5709,
      "Ġcontext": 5710,
      "Ġunion": 5711,
      "ati": 5712,
      "Ġengineering": 5713,
      "eld": 5714,
      "ogen": 5715,
      "Ġ1944": 5716,
      "ĠMod": 5717,
      "ĠPubl": 5718,
      "ĠPier": 5719,
      "Ġseg": 5720,
      "ima": 5721,
      "aven": 5722,
      "Ġstandards": 5723,
      "Ġcapacity": 5724,
      "Ġrelative": 5725,
      "93": 5726,
      "eler": 5727,
      "ulpt": 5728,
      "Ġpaid": 5729,
      "Ġdetermined": 5730,
      "Ġranked": 5731,
      "Am": 5732,
      "Ġofficials": 5733,
      "onald": 5734,
      "Ġmotor": 5735,
      "Ġattempts": 5736,
      "Ġauth": 5737,
      "Ġpet": 5738,
      "ĠWeb": 5739,
      "German": 5740,
      "Ġfair": 5741,
      "Ġoutput": 5742,
      "ĠKorea": 5743,
      "ĠGeorgia": 5744,
      "ĠOhio": 5745,
      "omers": 5746,
      "wer": 5747,
      "ca": 5748,
      "Ð½Ð¾Ðµ": 5749,
      "rete": 5750,
      "ĠNobel": 5751,
      "Ġwild": 5752,
      "ÑĢÐ°Ð²": 5753,
      "Ġimportance": 5754,
      "Ġjournalist": 5755,
      "Ġequivalent": 5756,
      "Ġroll": 5757,
      "ĠÐ¿ÑĢÐ¾": 5758,
      "Ġstrug": 5759,
      "irmed": 5760,
      "Ġnor": 5761,
      "umes": 5762,
      "Ġcomedy": 5763,
      "ali": 5764,
      "ĠOs": 5765,
      "Ġvotes": 5766,
      "zy": 5767,
      "ĠWay": 5768,
      "Ġacquired": 5769,
      "bi": 5770,
      "Ġswe": 5771,
      "Ġmixed": 5772,
      "inus": 5773,
      "Ġnovels": 5774,
      "lem": 5775,
      "Ġdevices": 5776,
      "Ġ1948": 5777,
      "lywood": 5778,
      "ao": 5779,
      "Ġreflect": 5780,
      "Ġbrand": 5781,
      "Ġexisting": 5782,
      "ĠModern": 5783,
      "Ġring": 5784,
      "Ġpurs": 5785,
      "Ð¼Ñĥ": 5786,
      "Ġprefer": 5787,
      "Ġdescribes": 5788,
      "ockey": 5789,
      "ĠStephen": 5790,
      "Ġatmosp": 5791,
      "ashion": 5792,
      "ĠMah": 5793,
      "ĠCreek": 5794,
      "ĠOlympic": 5795,
      "Ġminim": 5796,
      "ĠÐ¼Ñĭ": 5797,
      "Ġconnect": 5798,
      "yan": 5799,
      "ii": 5800,
      "uration": 5801,
      "mont": 5802,
      "Ġtranslation": 5803,
      "Ġlives": 5804,
      "Ð´Ðµ": 5805,
      "48": 5806,
      "miss": 5807,
      "ĠUk": 5808,
      "ogy": 5809,
      "rance": 5810,
      "ĠUl": 5811,
      "ĠMarg": 5812,
      "gers": 5813,
      "isf": 5814,
      "ĠÐ·Ð½": 5815,
      "enger": 5816,
      "Ġlaunch": 5817,
      "Ġeditor": 5818,
      "Ġtun": 5819,
      "ĠArthur": 5820,
      "ĠMarsh": 5821,
      "Ġleadership": 5822,
      "Ġmythology": 5823,
      "Ġreceive": 5824,
      "ĠÑĤÐ¾Ð»ÑĮÐºÐ¾": 5825,
      "Dem": 5826,
      "Ġbass": 5827,
      "ĠJesus": 5828,
      "Ġworldwide": 5829,
      "vant": 5830,
      "Ġcycle": 5831,
      "Ġroom": 5832,
      "Ġtranslated": 5833,
      "Ġmountain": 5834,
      "ĠThree": 5835,
      "Ġtraffic": 5836,
      "ĠTai": 5837,
      "aded": 5838,
      "Ġaccur": 5839,
      "Ġexecutive": 5840,
      "Ġhypot": 5841,
      "ĠNews": 5842,
      "ĠÐ´ÐµÐ²": 5843,
      "indu": 5844,
      "des": 5845,
      "gu": 5846,
      "Ġruled": 5847,
      "hire": 5848,
      "ĠMr": 5849,
      "Ġce": 5850,
      "ĠCharl": 5851,
      "adel": 5852,
      "ĠStand": 5853,
      "ĠMicro": 5854,
      "ĠDNA": 5855,
      "ropri": 5856,
      "Ġopera": 5857,
      "ĠHon": 5858,
      "Ġcritics": 5859,
      "Ġcandidate": 5860,
      "Ġdig": 5861,
      "CC": 5862,
      "Ðł": 5863,
      "ĠWild": 5864,
      "ĠGolden": 5865,
      "achusetts": 5866,
      "Ġadap": 5867,
      "ĠOrthodox": 5868,
      "Ġproved": 5869,
      "quarters": 5870,
      "Ġproviding": 5871,
      "Ġpossibly": 5872,
      "AF": 5873,
      "Ġfactor": 5874,
      "Ġfailure": 5875,
      "Ġmel": 5876,
      "ocracy": 5877,
      "ĠÐºÐ¾Ð½": 5878,
      "rupt": 5879,
      "bro": 5880,
      "ĠGen": 5881,
      "ÐµÑĤÑģÑı": 5882,
      "Ġ1939": 5883,
      "IN": 5884,
      "Ġhab": 5885,
      "Ġopportun": 5886,
      "oes": 5887,
      "Ġadvoc": 5888,
      "ĠIllinois": 5889,
      "ĠWilson": 5890,
      "Ġnewspaper": 5891,
      "abama": 5892,
      "Ġmoment": 5893,
      "ĠSpring": 5894,
      "Ġwa": 5895,
      "ounded": 5896,
      "active": 5897,
      "song": 5898,
      "ĠChap": 5899,
      "Ġliterary": 5900,
      "Ġoccasion": 5901,
      "iat": 5902,
      "eller": 5903,
      "ÑĢÐµÐ¼": 5904,
      "including": 5905,
      "ĠÐµÑīÐµ": 5906,
      "Ð¾ÑĩÐµÐ¼Ñĥ": 5907,
      "Pop": 5908,
      "Ġenj": 5909,
      "Se": 5910,
      "Ġconduct": 5911,
      "Ġreasons": 5912,
      "ĠGer": 5913,
      "issance": 5914,
      "Ġinhabit": 5915,
      "usal": 5916,
      "fficial": 5917,
      "ÑĩÐ¸ÑĤ": 5918,
      "....": 5919,
      "Ġparallel": 5920,
      "Ġfinished": 5921,
      "Ġcrim": 5922,
      "100": 5923,
      "Ġexclus": 5924,
      "Ġbra": 5925,
      "ederation": 5926,
      "iny": 5927,
      "Ġtoward": 5928,
      "ĠĠĊ": 5929,
      "ager": 5930,
      "83": 5931,
      "Ġaid": 5932,
      "icy": 5933,
      "ĠBus": 5934,
      "Ð¸Ð»Ð°": 5935,
      "Ġdoub": 5936,
      "National": 5937,
      "Ġpick": 5938,
      "Ġactors": 5939,
      "oday": 5940,
      "ologists": 5941,
      "Ġprice": 5942,
      "Mar": 5943,
      "ĠUr": 5944,
      "Ġactual": 5945,
      "coh": 5946,
      "place": 5947,
      "cious": 5948,
      "ĠGr": 5949,
      "Ġsuggests": 5950,
      "91": 5951,
      "Ġfolk": 5952,
      "iography": 5953,
      "Ġwall": 5954,
      "Ġselected": 5955,
      "Ġsales": 5956,
      "Ġattended": 5957,
      "Ġsubst": 5958,
      "Ġbodies": 5959,
      "Ġpossess": 5960,
      "ĠFoot": 5961,
      "Ġarts": 5962,
      "ĠChampionship": 5963,
      "Ġpiece": 5964,
      "Ġcore": 5965,
      "ĠÐ½Ð°Ð´": 5966,
      "ĠAndrew": 5967,
      "ĠCard": 5968,
      "ĠGreg": 5969,
      "oven": 5970,
      "Ġsubstant": 5971,
      "Ġsolution": 5972,
      "Ġoccupied": 5973,
      "ĠÐ¿Ð¾ÑĤ": 5974,
      "Ġcarry": 5975,
      "Ġkilling": 5976,
      "Ġcontrolled": 5977,
      "lines": 5978,
      "ĠProject": 5979,
      "ilding": 5980,
      "ĠCzech": 5981,
      "ĠÐ±Ð¾Ð»ÑĮ": 5982,
      "ĠSeries": 5983,
      "ĠProf": 5984,
      "vest": 5985,
      "Ġrob": 5986,
      "Ġ1961": 5987,
      "Ġpolicies": 5988,
      "John": 5989,
      "aret": 5990,
      "Ġsolid": 5991,
      "ĠBoston": 5992,
      "ĠJournal": 5993,
      "Ġtim": 5994,
      "uther": 5995,
      "edition": 5996,
      "org": 5997,
      "Ġshape": 5998,
      "Ġsusp": 5999,
      "ĠÐ»ÑİÐ±": 6000,
      "ais": 6001,
      "Ġsides": 6002,
      "king": 6003,
      "Ġnations": 6004,
      "Ġmaximum": 6005,
      "ĠYoung": 6006,
      "Ġformat": 6007,
      "awa": 6008,
      "Ġpositions": 6009,
      "Ġincreasingly": 6010,
      "Ġachieved": 6011,
      "ĠPhilipp": 6012,
      "Ġforward": 6013,
      "Ġacts": 6014,
      "Ġassist": 6015,
      "ĠBridge": 6016,
      "related": 6017,
      "Ġfaith": 6018,
      "67": 6019,
      "ĠFe": 6020,
      "Ġcong": 6021,
      "84": 6022,
      "Ġprinciple": 6023,
      "ĠGood": 6024,
      "ortheast": 6025,
      "osm": 6026,
      "resh": 6027,
      "ĠÐŃ": 6028,
      "Ġuser": 6029,
      "Ġhistoric": 6030,
      "yes": 6031,
      "ĠMoon": 6032,
      "ĠMexican": 6033,
      "Ġsettled": 6034,
      "ĠChief": 6035,
      "Ġfixed": 6036,
      "omew": 6037,
      "iph": 6038,
      "andom": 6039,
      "ologies": 6040,
      "ads": 6041,
      "ÑĥÐº": 6042,
      "All": 6043,
      "amental": 6044,
      "Ð£": 6045,
      "Ġsculpt": 6046,
      "iger": 6047,
      "Ġcontained": 6048,
      "Ġfighting": 6049,
      "ĠBooks": 6050,
      "ĠLittle": 6051,
      "Ġ500": 6052,
      "Ġsetting": 6053,
      "itzer": 6054,
      "ĠArm": 6055,
      "Ġencoura": 6056,
      "Ġrh": 6057,
      "ĠMassachusetts": 6058,
      "Ġcombination": 6059,
      "ĠLincoln": 6060,
      "Ġheavily": 6061,
      "sey": 6062,
      "ĠProtest": 6063,
      "'re": 6064,
      "Des": 6065,
      "Ġproport": 6066,
      "Since": 6067,
      "Ġspring": 6068,
      "ĠÑĥÐ¶Ðµ": 6069,
      "cription": 6070,
      "ĠCE": 6071,
      "Ġ1941": 6072,
      "istical": 6073,
      "Ġclasses": 6074,
      "2010": 6075,
      "Ġbask": 6076,
      "Ġ|": 6077,
      "ĠJoh": 6078,
      "ipped": 6079,
      "ÑĤÐ¾Ð±Ñĭ": 6080,
      "ĠBureau": 6081,
      "Ġones": 6082,
      "Ġquarter": 6083,
      "Ġintroduction": 6084,
      "Ġrequires": 6085,
      "ĠAst": 6086,
      "rome": 6087,
      "Ġsignificantly": 6088,
      "List": 6089,
      "rees": 6090,
      "ĠIslamic": 6091,
      "Ġentirely": 6092,
      "akh": 6093,
      "ceived": 6094,
      "Ġsector": 6095,
      "Ġdeveloping": 6096,
      "ĠFollowing": 6097,
      "Ġshared": 6098,
      "ĠAustria": 6099,
      "udget": 6100,
      "Ġschem": 6101,
      "Ġliqu": 6102,
      "Ġfacilities": 6103,
      "ÑĢÐ°Ð½": 6104,
      "ĠInst": 6105,
      "Ġviolence": 6106,
      "ĠÑĤÐµÐ±Ñı": 6107,
      "Ġsucceeded": 6108,
      "Ġdifferences": 6109,
      "PS": 6110,
      "ennes": 6111,
      "ĠWindows": 6112,
      "Ġstone": 6113,
      "ĠBoard": 6114,
      "ragon": 6115,
      "rix": 6116,
      "shire": 6117,
      "oples": 6118,
      "Ð¾Ð´Ð¸ÑĤ": 6119,
      "Ġeasily": 6120,
      "Ġproced": 6121,
      "ĠIraq": 6122,
      "Ġ1942": 6123,
      "ucky": 6124,
      "omic": 6125,
      "Ġphenomen": 6126,
      "mm": 6127,
      "isp": 6128,
      "Ġauthorities": 6129,
      "Ġpan": 6130,
      "ĠLeon": 6131,
      "Ġelev": 6132,
      "ĠFree": 6133,
      "Ġcrime": 6134,
      "cycl": 6135,
      "Ġcorrect": 6136,
      "Ġelim": 6137,
      "ĠSong": 6138,
      "Ġpieces": 6139,
      "Ġdrive": 6140,
      "rising": 6141,
      "amic": 6142,
      "ĠPop": 6143,
      "Ġreports": 6144,
      "ĠMid": 6145,
      "ĠConference": 6146,
      "Ġscore": 6147,
      "Ġ;": 6148,
      "Trans": 6149,
      "ading": 6150,
      "Ġchoice": 6151,
      "inction": 6152,
      "Ġdescribe": 6153,
      "Ġaudience": 6154,
      "Ġviews": 6155,
      "oto": 6156,
      "39": 6157,
      "Ġauthors": 6158,
      "Ġcolonial": 6159,
      "IA": 6160,
      "bell": 6161,
      "Ġcancer": 6162,
      "rÃ©": 6163,
      "term": 6164,
      "ĠAlabama": 6165,
      "Ġorders": 6166,
      "ĠÂ£": 6167,
      "ĠAfghan": 6168,
      "While": 6169,
      "ĠFrederick": 6170,
      "ĠAwards": 6171,
      "insula": 6172,
      "ĠRay": 6173,
      "ĠSu": 6174,
      "Ġrural": 6175,
      "roduction": 6176,
      "ĠArgent": 6177,
      "Ġrevealed": 6178,
      "Ġvisit": 6179,
      "Ġ1956": 6180,
      "Ġcontinues": 6181,
      "ba": 6182,
      "ga": 6183,
      "Ġvisited": 6184,
      "Ġpair": 6185,
      "ĠSat": 6186,
      "ĠFair": 6187,
      "Ġadvantage": 6188,
      "Ġhappen": 6189,
      "ĠLine": 6190,
      "aths": 6191,
      "Ġdang": 6192,
      "ĠÐķ": 6193,
      "Ġplatform": 6194,
      "Can": 6195,
      "Or": 6196,
      "Ġmaster": 6197,
      "ĠMissouri": 6198,
      "ĠEach": 6199,
      "set": 6200,
      "ĠAsh": 6201,
      "Ġdistricts": 6202,
      "utation": 6203,
      "ĠMinist": 6204,
      "ĠJr": 6205,
      "ource": 6206,
      "ruck": 6207,
      "Ġthrone": 6208,
      "uten": 6209,
      "Ġhorse": 6210,
      "Ð°Ñĩ": 6211,
      "Ġcoord": 6212,
      "Ġlat": 6213,
      "Ġanaly": 6214,
      "wick": 6215,
      "ĠHun": 6216,
      "ĠBlue": 6217,
      "Ġrejected": 6218,
      "ĠHealth": 6219,
      "ĠPC": 6220,
      "Ġclosely": 6221,
      "Be": 6222,
      "Ġboy": 6223,
      "Ġfeaturing": 6224,
      "Ġdance": 6225,
      "Ġtrees": 6226,
      "ĠSher": 6227,
      "ronic": 6228,
      "Ġplanet": 6229,
      "Ġtalk": 6230,
      "char": 6231,
      "ÑħÐ¾Ð´Ð¸ÑĤ": 6232,
      "olis": 6233,
      "ygen": 6234,
      "ĠHay": 6235,
      "ĠUs": 6236,
      "law": 6237,
      "onian": 6238,
      "issipp": 6239,
      "Ġopin": 6240,
      "Ġcoming": 6241,
      "Ġcolumn": 6242,
      "ambig": 6243,
      "Ġgeneration": 6244,
      "Ġspect": 6245,
      "ĠFrancis": 6246,
      "ĠÐ¿Ð¾Ðº": 6247,
      "Ġinstruments": 6248,
      "Polit": 6249,
      "Ġpublication": 6250,
      "ĠIBM": 6251,
      "IS": 6252,
      "Ġspecifically": 6253,
      "Ġprocesses": 6254,
      "Ġenvironmental": 6255,
      "Ġ*": 6256,
      "iling": 6257,
      "ĠDomin": 6258,
      "Ġcausing": 6259,
      "Ġdescent": 6260,
      "ĠLi": 6261,
      "Ġcalc": 6262,
      "ibb": 6263,
      "Ġimages": 6264,
      "Ġmanaged": 6265,
      "phone": 6266,
      "ĠDevelopment": 6267,
      "Ġroles": 6268,
      "Ġpartn": 6269,
      "Ġcomponents": 6270,
      "Ġcampus": 6271,
      "Ġcab": 6272,
      "Ġthousands": 6273,
      "eget": 6274,
      "Ġcircum": 6275,
      "Ġserving": 6276,
      "Ġtal": 6277,
      "Col": 6278,
      "Le": 6279,
      "rif": 6280,
      "Ġattend": 6281,
      "Ġfleet": 6282,
      "Ġnucle": 6283,
      "Ġconnection": 6284,
      "Ġign": 6285,
      "Ġseats": 6286,
      "van": 6287,
      "Pr": 6288,
      "ĠTest": 6289,
      "Ġlingu": 6290,
      "Ġnewly": 6291,
      "Ġnoble": 6292,
      "46": 6293,
      "Ġarmed": 6294,
      "rep": 6295,
      "Ġserves": 6296,
      "Ġ1947": 6297,
      "Ġtexts": 6298,
      "Ġbill": 6299,
      "Ġstudied": 6300,
      "ĠLar": 6301,
      "ĠBon": 6302,
      "ĠOcean": 6303,
      "inton": 6304,
      "Ġglass": 6305,
      "Ġban": 6306,
      "ĠÐ¾Ð½Ð°": 6307,
      "hat": 6308,
      "Ġchurches": 6309,
      "Ġfreedom": 6310,
      "itled": 6311,
      "ĠApoll": 6312,
      "ĠOf": 6313,
      "Ġincorporated": 6314,
      "ĠÐ´Ð¾Ð¼": 6315,
      "ĠByzantine": 6316,
      "Ġfear": 6317,
      "aka": 6318,
      "ĠCD": 6319,
      "Ġpaint": 6320,
      "Ġphr": 6321,
      "Ġcalls": 6322,
      "ennis": 6323,
      "Ġspoken": 6324,
      "Ġcombat": 6325,
      "Ġtrain": 6326,
      "ilton": 6327,
      "Ġ1946": 6328,
      "Ġstream": 6329,
      "Ġconvent": 6330,
      "Ġbrain": 6331,
      "Ġadvanced": 6332,
      "Ġslightly": 6333,
      "We": 6334,
      "%.": 6335,
      "Ġstock": 6336,
      "Ġtrial": 6337,
      "ĠCentre": 6338,
      "ader": 6339,
      "Ġsecondary": 6340,
      "ĠImperial": 6341,
      "Ġaffected": 6342,
      "ĠLewis": 6343,
      "oly": 6344,
      "ÑĮÑı": 6345,
      "Ġagg": 6346,
      "Ġ1959": 6347,
      "ĠMichigan": 6348,
      "Ġmaintained": 6349,
      "ĠColl": 6350,
      "Ġfeed": 6351,
      "ĠÑĢÐ°Ð±Ð¾ÑĤ": 6352,
      "Ġchosen": 6353,
      "burgh": 6354,
      "Ġsup": 6355,
      "ĠMarc": 6356,
      "ĠTal": 6357,
      "osite": 6358,
      "ĠBarb": 6359,
      "eign": 6360,
      "Ġtemperatures": 6361,
      "Ġrom": 6362,
      "ĠPolit": 6363,
      "Ð½ÑĭÐ¼": 6364,
      "ÑİÑĤ": 6365,
      "Ġlawyer": 6366,
      "ĠÑĨ": 6367,
      "enh": 6368,
      "Ð½Ð¸": 6369,
      "Ġ1958": 6370,
      "Ġstatement": 6371,
      "Ġmap": 6372,
      "Ġdepartment": 6373,
      "ĠEarly": 6374,
      "Ġvess": 6375,
      "ĠLove": 6376,
      "car": 6377,
      "ĠField": 6378,
      "Ġweak": 6379,
      "ĠSecurity": 6380,
      "Ġnarrow": 6381,
      "Ġvehicles": 6382,
      "Ġnotably": 6383,
      "Ġath": 6384,
      "Ġlabel": 6385,
      "Ġwides": 6386,
      "Ġflood": 6387,
      "ĠOd": 6388,
      "inson": 6389,
      "Ġsand": 6390,
      "ĠIndepend": 6391,
      "ĠSund": 6392,
      "ĠLes": 6393,
      "ĠÐ½Ð°Ñģ": 6394,
      "ĠColor": 6395,
      "Ġtherm": 6396,
      "Ġinvent": 6397,
      "Ġobtained": 6398,
      "Ð½ÑĭÑħ": 6399,
      "issippi": 6400,
      "ĠNazi": 6401,
      "Ġpropos": 6402,
      "ĠDie": 6403,
      "Ġending": 6404,
      "mad": 6405,
      "ĠChild": 6406,
      "Ġfifth": 6407,
      "Ġstrength": 6408,
      "ĠTit": 6409,
      "Ġdivers": 6410,
      "ĠGuard": 6411,
      "Ġrival": 6412,
      "ĠCorporation": 6413,
      "To": 6414,
      "Ġrepeated": 6415,
      "ĠEnter": 6416,
      "ĠCop": 6417,
      "Ġstreet": 6418,
      "Ġenjoy": 6419,
      "ĠBase": 6420,
      "68": 6421,
      "grad": 6422,
      "ÑĭÑħ": 6423,
      "iac": 6424,
      "Ġflat": 6425,
      "74": 6426,
      "ĠOpen": 6427,
      "ĠHispanic": 6428,
      "Ġalph": 6429,
      "Ġorbit": 6430,
      "real": 6431,
      "una": 6432,
      "kee": 6433,
      "mes": 6434,
      "ims": 6435,
      "Ġstrateg": 6436,
      "former": 6437,
      "Ġjuris": 6438,
      "ĠÑĢÐ°Ñģ": 6439,
      "ÐµÑĢÐ°": 6440,
      "ĠEth": 6441,
      "incess": 6442,
      "Ġchannel": 6443,
      "Ġ1943": 6444,
      "pread": 6445,
      "enna": 6446,
      "Ġjoin": 6447,
      "Ġcrisis": 6448,
      "ĠTerrit": 6449,
      "ĠOttoman": 6450,
      "stream": 6451,
      "Ġperhaps": 6452,
      "Ġpoem": 6453,
      "Ġholds": 6454,
      "ĠSav": 6455,
      "%,": 6456,
      "ache": 6457,
      "AR": 6458,
      "Ġfounder": 6459,
      "Ġprincipal": 6460,
      "Ġepisodes": 6461,
      "Ġsnow": 6462,
      "antasy": 6463,
      "Ġcapita": 6464,
      "ĠPlan": 6465,
      "Ġratio": 6466,
      "power": 6467,
      "ĠLy": 6468,
      "Ġvac": 6469,
      "'.": 6470,
      "ÐµÑĢÑĮ": 6471,
      "gr": 6472,
      "Ġdiam": 6473,
      "ĠÐļÐ°Ðº": 6474,
      "ĠÐ²Ð°Ñģ": 6475,
      "soft": 6476,
      "overeign": 6477,
      "bu": 6478,
      "ĠFurther": 6479,
      "Ġsatell": 6480,
      "Ġunable": 6481,
      "ĠDigital": 6482,
      "ĠÐ½ÐµÑĤ": 6483,
      "Ġinhabitants": 6484,
      "ĠEs": 6485,
      "fall": 6486,
      "ÐµÐ»Ð¾Ð²": 6487,
      "ĠTownship": 6488,
      "Ġ1949": 6489,
      "organ": 6490,
      "Ġtribes": 6491,
      "Ġemployed": 6492,
      "Ġmile": 6493,
      "ĠHit": 6494,
      "Ġcrown": 6495,
      "itionally": 6496,
      "ĠDaniel": 6497,
      "78": 6498,
      "Ġbishop": 6499,
      "ocratic": 6500,
      "oured": 6501,
      "Ġusers": 6502,
      "Ð¸Ð»ÑĮ": 6503,
      "aylor": 6504,
      "Ġultimately": 6505,
      "illy": 6506,
      "Ġinput": 6507,
      "Ġleaves": 6508,
      "Ġimproved": 6509,
      "pet": 6510,
      "Ġcamer": 6511,
      "Ġcalcul": 6512,
      "Ġregarding": 6513,
      "Ġapproved": 6514,
      "ĠEgyptian": 6515,
      "ĠNight": 6516,
      "Ġbackground": 6517,
      "Ġtypical": 6518,
      "gle": 6519,
      "nes": 6520,
      "ĠBoy": 6521,
      "aked": 6522,
      "Ġalongside": 6523,
      "ĠMir": 6524,
      "ĠOt": 6525,
      "SS": 6526,
      "ĠEngine": 6527,
      "Ġfra": 6528,
      "Ġdaily": 6529,
      "Ġdraft": 6530,
      "Ġvoted": 6531,
      "Ñį": 6532,
      "ĠPersian": 6533,
      "ĠRam": 6534,
      "ÑĥÑħ": 6535,
      "ĠSpecial": 6536,
      "Ġexpression": 6537,
      "Ġgar": 6538,
      "Ġgram": 6539,
      "Ġskin": 6540,
      "ĠIsraeli": 6541,
      "ĠMax": 6542,
      "Ġsilver": 6543,
      "ĠKansas": 6544,
      "uster": 6545,
      "Ġbegin": 6546,
      "ĠVictoria": 6547,
      "Ġacting": 6548,
      "Films": 6549,
      "Ġhapp": 6550,
      "etime": 6551,
      "Comp": 6552,
      "Ġabol": 6553,
      "ĠHug": 6554,
      "42": 6555,
      "Ġtransition": 6556,
      "Ġabsor": 6557,
      "ĠÐ¾Ð¿": 6558,
      "ĠMaria": 6559,
      "ĠLet": 6560,
      "ĠBible": 6561,
      "Ġdefense": 6562,
      "ĠÐ³Ð¾Ð»": 6563,
      "Ġbott": 6564,
      "come": 6565,
      "ibliography": 6566,
      "ĠChristianity": 6567,
      "Ġreally": 6568,
      "ĠMot": 6569,
      "Ġuseful": 6570,
      "Ġpopularity": 6571,
      "Ð¾ÑģÑĮ": 6572,
      "Brit": 6573,
      "Ġload": 6574,
      "Char": 6575,
      "orning": 6576,
      "Ġsimpl": 6577,
      "Ġfat": 6578,
      "ĠDun": 6579,
      "han": 6580,
      "ĠConn": 6581,
      "obe": 6582,
      "Ġcool": 6583,
      "ĠEarl": 6584,
      "ĠHot": 6585,
      "Ġfashion": 6586,
      "ela": 6587,
      "Ġlear": 6588,
      "FA": 6589,
      "ĠÐ¼Ð¾": 6590,
      "Ġcomic": 6591,
      "Ġdeliver": 6592,
      "Ġmanufactur": 6593,
      "rox": 6594,
      "ĠFoundation": 6595,
      "Ġdesignated": 6596,
      "ĠHeb": 6597,
      "ĠPower": 6598,
      "Ġisol": 6599,
      "Ġtechnique": 6600,
      "fam": 6601,
      "ĠRod": 6602,
      "ÑĭÐ¼": 6603,
      "ĠDev": 6604,
      "Ġreact": 6605,
      "Treat": 6606,
      "Ġcold": 6607,
      "Ġ1957": 6608,
      "Many": 6609,
      "Ġtitled": 6610,
      "Ġpurposes": 6611,
      "cular": 6612,
      "Ġversus": 6613,
      "aska": 6614,
      "Ġrecip": 6615,
      "Ġdecade": 6616,
      "ĠÐ¶ÐµÐ½Ñī": 6617,
      "ĠSa": 6618,
      "antry": 6619,
      "Ġphilosopher": 6620,
      "ĠCommunity": 6621,
      "ĠRepresent": 6622,
      "Ġvow": 6623,
      "Ġdecline": 6624,
      "Ð¸ÑĪÑĮ": 6625,
      "Ġfram": 6626,
      "Ġwars": 6627,
      "ĠBir": 6628,
      "Ġadapted": 6629,
      "Ġwidespread": 6630,
      "ĠAk": 6631,
      "Ġrenamed": 6632,
      "Ġcommunication": 6633,
      "oen": 6634,
      "Ġgods": 6635,
      "Ġexternal": 6636,
      "ĠCam": 6637,
      "ĠGh": 6638,
      "Ġ150": 6639,
      "ĠJustice": 6640,
      "ĠOb": 6641,
      "ĠÐ²Ð¸Ð´": 6642,
      "Ġpermanent": 6643,
      "ÐµÐ»Ð¸": 6644,
      "orage": 6645,
      "ellect": 6646,
      "Ð¸Ñİ": 6647,
      "Ġnothing": 6648,
      "ĠPict": 6649,
      "Ġunderstanding": 6650,
      "Ġcourts": 6651,
      "uscript": 6652,
      "ĠAmong": 6653,
      "1990": 6654,
      "Ġstring": 6655,
      "Ġassass": 6656,
      "72": 6657,
      "igation": 6658,
      "Ð°ÑģÑĮ": 6659,
      "Ġconfirmed": 6660,
      "ĠDyn": 6661,
      "eline": 6662,
      "Ġalt": 6663,
      "ienced": 6664,
      "Ġmist": 6665,
      "Ġtreaty": 6666,
      "ouns": 6667,
      "Ġgoods": 6668,
      "rav": 6669,
      "wegian": 6670,
      "ĠÑģÐ¾Ð±": 6671,
      "Ġalcoh": 6672,
      "Ġintelligence": 6673,
      "ÐµÑģÑĮ": 6674,
      "iants": 6675,
      "load": 6676,
      "atically": 6677,
      "Ġdrink": 6678,
      "tes": 6679,
      "Ġpeoples": 6680,
      "worth": 6681,
      "ila": 6682,
      "Ġwhereas": 6683,
      "Ġheight": 6684,
      "aly": 6685,
      "fort": 6686,
      "ĠKorean": 6687,
      "pton": 6688,
      "ĠOrig": 6689,
      "Ġtheories": 6690,
      "ĠÑģÐµÐ±": 6691,
      "ictions": 6692,
      "called": 6693,
      "Ġhospital": 6694,
      "Ġchair": 6695,
      "Ġfile": 6696,
      "alo": 6697,
      "Ġconcluded": 6698,
      "Ġchart": 6699,
      "iege": 6700,
      "Ġcategory": 6701,
      "fully": 6702,
      "81": 6703,
      "ambiguation": 6704,
      "Ġzero": 6705,
      "ĠCastle": 6706,
      "inder": 6707,
      "Not": 6708,
      "Ġplane": 6709,
      "Ġburied": 6710,
      "Ġcards": 6711,
      "ĠSanta": 6712,
      "illing": 6713,
      "Ġarchae": 6714,
      "ĠMississippi": 6715,
      "Ġagricultural": 6716,
      "Ġcod": 6717,
      "rapy": 6718,
      "ĠDougl": 6719,
      "Ġprogress": 6720,
      "Ġfranch": 6721,
      "Ġvoc": 6722,
      "ĠForest": 6723,
      "iency": 6724,
      "ampion": 6725,
      "185": 6726,
      "Geography": 6727,
      "abet": 6728,
      "Ġ36": 6729,
      "Ġhop": 6730,
      "Ġlibrary": 6731,
      "Ã±": 6732,
      "Ġfirm": 6733,
      "ĠÐ³ÑĢ": 6734,
      "ĠÐ¾Ñĩ": 6735,
      "ÑģÐ¿": 6736,
      "Ġweather": 6737,
      "Ġdebate": 6738,
      "Ġtom": 6739,
      "osure": 6740,
      "Ġpros": 6741,
      "Ġbeaut": 6742,
      "ko": 6743,
      "Ġpractices": 6744,
      "from": 6745,
      "orus": 6746,
      "Ġneeds": 6747,
      "Ġextremely": 6748,
      "ÐµÐ½Ð¸Ñı": 6749,
      "osph": 6750,
      "Ġbroke": 6751,
      "Rel": 6752,
      "ĠEnd": 6753,
      "ĠShow": 6754,
      "Ġbasketball": 6755,
      "Ġproceed": 6756,
      "Ġfought": 6757,
      "ĠVar": 6758,
      "Ġlearning": 6759,
      "Ġoffers": 6760,
      "Ġaspects": 6761,
      "Ġquite": 6762,
      "Ġexerc": 6763,
      "ĠAri": 6764,
      "Ġpopulations": 6765,
      "Ġopposite": 6766,
      "ĠHollywood": 6767,
      "songwriter": 6768,
      "Ġsons": 6769,
      "Ġotherwise": 6770,
      "prise": 6771,
      "iy": 6772,
      "ÐµÑĤÑĮ": 6773,
      "ĠJon": 6774,
      "Ġends": 6775,
      "Ġsort": 6776,
      "sm": 6777,
      "ja": 6778,
      "ĠEven": 6779,
      "Ġcouples": 6780,
      "Ġelectronic": 6781,
      "xual": 6782,
      "ĠSus": 6783,
      "41": 6784,
      "Ġsufficient": 6785,
      "Ġexists": 6786,
      "Ġsynd": 6787,
      "aints": 6788,
      "zen": 6789,
      "Ġbands": 6790,
      "Ġille": 6791,
      "Ġtwice": 6792,
      "zo": 6793,
      "ĠAustrian": 6794,
      "cules": 6795,
      "Ġuniverse": 6796,
      "Ġinfluential": 6797,
      "Ġsemi": 6798,
      "ker": 6799,
      "elve": 6800,
      "Ġprotected": 6801,
      "ĠTour": 6802,
      "anned": 6803,
      "inals": 6804,
      "Ġsurvey": 6805,
      "ĠDenmark": 6806,
      "roc": 6807,
      "Ġmagnetic": 6808,
      "Ġalleged": 6809,
      "ĠÐ¿ÑĢÐ¾Ñģ": 6810,
      "Ġrein": 6811,
      "ymph": 6812,
      "71": 6813,
      "ĠKen": 6814,
      "ĠNapole": 6815,
      "umni": 6816,
      "ographical": 6817,
      "MA": 6818,
      "Ġcontributed": 6819,
      "aya": 6820,
      "Ġsafety": 6821,
      "ĠProgram": 6822,
      "ĠBa": 6823,
      "Ġproducing": 6824,
      "Ġprohib": 6825,
      "ifications": 6826,
      "ĠÐĽ": 6827,
      "Ġpreced": 6828,
      "Ġchallen": 6829,
      "wealth": 6830,
      "ĠFinn": 6831,
      "Ġplot": 6832,
      "ĠVi": 6833,
      "Ġ300": 6834,
      "inth": 6835,
      "ĠLie": 6836,
      "Ġdetermine": 6837,
      "ĠÑģÐ¿ÑĢÐ°ÑĪ": 6838,
      "Ġscientists": 6839,
      "ĠDisney": 6840,
      "anna": 6841,
      "TO": 6842,
      "ĠÐ´Ð»Ñı": 6843,
      "ivals": 6844,
      "cyclop": 6845,
      "ruce": 6846,
      "Ġnaval": 6847,
      "Ġadministrative": 6848,
      "IV": 6849,
      "umin": 6850,
      "Ġaccounts": 6851,
      "ĠCr": 6852,
      "ĠÐºÐ¾Ð¼": 6853,
      "Ġmathematic": 6854,
      "Ġcars": 6855,
      "Ġvisual": 6856,
      "Ġlies": 6857,
      "82": 6858,
      "eries": 6859,
      "ĠSeveral": 6860,
      "ĠÐµÑģÐ»Ð¸": 6861,
      "Ġtitles": 6862,
      "Ġweb": 6863,
      "Ġcook": 6864,
      "Ġdocuments": 6865,
      "Ġoxygen": 6866,
      "don": 6867,
      "Ġ1936": 6868,
      "Ġdie": 6869,
      "Ġcosts": 6870,
      "Ġveget": 6871,
      "holder": 6872,
      "Ġpilot": 6873,
      "Man": 6874,
      "Ġstre": 6875,
      "ials": 6876,
      "Ġroughly": 6877,
      "Ġimperial": 6878,
      "Ġgoddess": 6879,
      "Ġreality": 6880,
      "Ġimprove": 6881,
      "ÑĬ": 6882,
      "ĠTaiwan": 6883,
      "Ġsomew": 6884,
      "seud": 6885,
      "Ġsan": 6886,
      "Ġdepending": 6887,
      "ĠAlexand": 6888,
      "43": 6889,
      "Ġ1953": 6890,
      "ĠCO": 6891,
      "iversary": 6892,
      "Ġpure": 6893,
      "western": 6894,
      "Ġ1952": 6895,
      "ĠCorps": 6896,
      "Ġjurisd": 6897,
      "then": 6898,
      "ĠLo": 6899,
      "ĠDam": 6900,
      "enses": 6901,
      "ĠÐ½Ð°Ñĩ": 6902,
      "Ġuniversities": 6903,
      "ĠÐ´ÐµÐ½ÑĮ": 6904,
      "disambiguation": 6905,
      "ĠÑĩÑĤÐ¾Ð±Ñĭ": 6906,
      "ĠEducation": 6907,
      "raine": 6908,
      "Ġheard": 6909,
      "Ġ1955": 6910,
      "Ġdry": 6911,
      "Ġmunicipal": 6912,
      "uis": 6913,
      "aug": 6914,
      "Ġsympt": 6915,
      "Ne": 6916,
      "Ġempire": 6917,
      "Ġyounger": 6918,
      "Ġmusicians": 6919,
      "roup": 6920,
      "Ġseems": 6921,
      "Ġroads": 6922,
      "Ġconcert": 6923,
      "ĠÑģÐ¾": 6924,
      "LA": 6925,
      "Ġmusician": 6926,
      "Ġtheme": 6927,
      "General": 6928,
      "Ġago": 6929,
      "MS": 6930,
      "ÑģÐºÐ¸Ð¹": 6931,
      "ĠSem": 6932,
      "49": 6933,
      "ĠEst": 6934,
      "Ġgreatly": 6935,
      "Ġgoes": 6936,
      "ĠDavis": 6937,
      "ĠStudies": 6938,
      "Ġruler": 6939,
      "ĠCas": 6940,
      "Ġrivers": 6941,
      "ÐµÐ½Ð¸Ðµ": 6942,
      "ĠHy": 6943,
      "iable": 6944,
      "adelph": 6945,
      "ĠTop": 6946,
      "Ġradiation": 6947,
      "Ġmerch": 6948,
      "Europe": 6949,
      "Ġhair": 6950,
      "Ġeat": 6951,
      "ĠForm": 6952,
      "My": 6953,
      "unc": 6954,
      "ĠHarry": 6955,
      "ĠWomen": 6956,
      "ĠDer": 6957,
      "Ġassociation": 6958,
      "ĠNorway": 6959,
      "Ġgenetic": 6960,
      "ĠÐ´Ð¾Ð»": 6961,
      "clusion": 6962,
      "Ġnom": 6963,
      "Ġinvolving": 6964,
      "crib": 6965,
      "ĠOnline": 6966,
      "ĠMP": 6967,
      "Ġrich": 6968,
      "Ġstrongly": 6969,
      "Ġansw": 6970,
      "ules": 6971,
      "Ġsevere": 6972,
      "olas": 6973,
      "Ġexception": 6974,
      "ĠIndiana": 6975,
      "Ġfrag": 6976,
      "Ġmovements": 6977,
      "Ġcas": 6978,
      "Ġfestival": 6979,
      "ĠDanish": 6980,
      "opl": 6981,
      "Ġ1938": 6982,
      "Ġpersonnel": 6983,
      "Ġtraditions": 6984,
      "Ġdefend": 6985,
      "Ġ1954": 6986,
      "ĠFootball": 6987,
      "ira": 6988,
      "elsh": 6989,
      "Ġhistorians": 6990,
      "Rec": 6991,
      "Ġchain": 6992,
      "Ġlinked": 6993,
      "Ġnick": 6994,
      "Ġdates": 6995,
      "lets": 6996,
      "Ġshell": 6997,
      "Ġ33": 6998,
      "Ġdoing": 6999,
      "Ġcompl": 7000,
      "61": 7001,
      "Ġmedium": 7002,
      "63": 7003,
      "Ġmil": 7004,
      "Ġbow": 7005,
      "ello": 7006,
      "ĠFame": 7007,
      "Ġgovernments": 7008,
      "Ġdesigns": 7009,
      "Ġengineer": 7010,
      "Ġunp": 7011,
      "Ġven": 7012,
      "Ġmeasures": 7013,
      "Ġadvent": 7014,
      "Ġlegend": 7015,
      "``": 7016,
      "Ġrecognition": 7017,
      "Ġ(),": 7018,
      "Ġmulti": 7019,
      "Ġbudget": 7020,
      "Hz": 7021,
      "rator": 7022,
      "Ġgrav": 7023,
      "ĠMinn": 7024,
      "Ġ1918": 7025,
      "Ġpoetry": 7026,
      "ped": 7027,
      "Ġvehicle": 7028,
      "ancing": 7029,
      "arks": 7030,
      "Ġtheorem": 7031,
      "Ġleads": 7032,
      "Ġattacked": 7033,
      "Ġmilit": 7034,
      "ĠLabor": 7035,
      "Ġexpect": 7036,
      "Ġadvance": 7037,
      "Ġprepar": 7038,
      "Ġtheatre": 7039,
      "ĠAtt": 7040,
      "Ġtechnical": 7041,
      "Ġconsisting": 7042,
      "ĠÐ¸Ð½": 7043,
      "Ġdrop": 7044,
      "ĠIndones": 7045,
      "ÑģÑĤÐ°Ð²": 7046,
      "ordan": 7047,
      "Ġrapidly": 7048,
      "ÑĤÑĮ": 7049,
      "ĠHarvard": 7050,
      "Ġalter": 7051,
      "Ġincreases": 7052,
      "Ġtwenty": 7053,
      "Ġabandoned": 7054,
      "anning": 7055,
      "Ġcryst": 7056,
      "Ġlocations": 7057,
      "Ġexperienced": 7058,
      "ĠPalace": 7059,
      "Ġwinners": 7060,
      "ĠKong": 7061,
      "Ġimag": 7062,
      "ctoral": 7063,
      "Ġpage": 7064,
      "rastructure": 7065,
      "ĠÐ¿Ð°ÑĢ": 7066,
      "Ġshall": 7067,
      "usalem": 7068,
      "73": 7069,
      "ĠCab": 7070,
      "arp": 7071,
      "emic": 7072,
      "Ġcycl": 7073,
      "ĠOk": 7074,
      "Ġheadquarters": 7075,
      "Ġsupporting": 7076,
      "idden": 7077,
      "Ġperformances": 7078,
      "62": 7079,
      "79": 7080,
      "eman": 7081,
      "ĠHu": 7082,
      "ĠÐµÑģÑĤÑĮ": 7083,
      "Ġconverted": 7084,
      "Ġequation": 7085,
      "Ġdrama": 7086,
      "icide": 7087,
      "oming": 7088,
      "Ġsteel": 7089,
      "gebra": 7090,
      "Ġmakeup": 7091,
      "Ġrequest": 7092,
      "ĠFord": 7093,
      "hard": 7094,
      "Ġcra": 7095,
      "ĠForeign": 7096,
      "Ġonto": 7097,
      "Ġexplain": 7098,
      "Ġsoil": 7099,
      "pective": 7100,
      "ĠSuch": 7101,
      "Ð¾ÑĢÐ¾ÑĪ": 7102,
      "ĠLady": 7103,
      "Ġassigned": 7104,
      "Ġsuccessfully": 7105,
      "cts": 7106,
      "01": 7107,
      "Ġwalls": 7108,
      "hips": 7109,
      "Ġestablishment": 7110,
      "Aust": 7111,
      "acter": 7112,
      "Ġinform": 7113,
      "phy": 7114,
      "Ġyouth": 7115,
      "Ġscholar": 7116,
      "arsh": 7117,
      "Ġaffect": 7118,
      "unications": 7119,
      "Ã©e": 7120,
      "Ġcriminal": 7121,
      "ĠOlympics": 7122,
      "know": 7123,
      "Ġparam": 7124,
      "ĠTa": 7125,
      "ĠUt": 7126,
      "ĠConvention": 7127,
      "Ġterror": 7128,
      "inations": 7129,
      "esc": 7130,
      "Ġcorpor": 7131,
      "ĠÅ": 7132,
      "ĠChristmas": 7133,
      "Ġnetworks": 7134,
      "ĠJoe": 7135,
      "ĠÐ¿Ð¾Ð¿": 7136,
      "Ġpainting": 7137,
      "Ġdiscovery": 7138,
      "ĠSax": 7139,
      "ĠJacob": 7140,
      "ĠForces": 7141,
      "Ġextent": 7142,
      "Ġ1937": 7143,
      "Ġpul": 7144,
      "Ð°ÑĤÑĮÑģÑı": 7145,
      "Ġemerg": 7146,
      "Ġmouth": 7147,
      "ĠWork": 7148,
      "Ġcurren": 7149,
      "Ġcapture": 7150,
      "fri": 7151,
      "wich": 7152,
      "ture": 7153,
      "Ġvo": 7154,
      "ropical": 7155,
      "ĠAnne": 7156,
      "ultan": 7157,
      "Ġattract": 7158,
      "Ġ1900": 7159,
      "ĠSummer": 7160,
      "idge": 7161,
      "aved": 7162,
      "Ġtransferred": 7163,
      "Ġseasons": 7164,
      "Ġdoctr": 7165,
      "iti": 7166,
      "ĠFox": 7167,
      "Ġideal": 7168,
      "Ġzone": 7169,
      "Ġcommander": 7170,
      "ĠNich": 7171,
      "Ġcrop": 7172,
      "Ġcomputers": 7173,
      "Ġstraight": 7174,
      "Ġresemb": 7175,
      "Ð¾ÑģÑģ": 7176,
      "Ġgeomet": 7177,
      "aga": 7178,
      "angel": 7179,
      "venth": 7180,
      "resents": 7181,
      "ĠLim": 7182,
      "Ġengines": 7183,
      "Ġdeclined": 7184,
      "Ġegg": 7185,
      "ussian": 7186,
      "ĠSciences": 7187,
      "ĠTar": 7188,
      "ennessee": 7189,
      "ĠVill": 7190,
      "rises": 7191,
      "Ġfans": 7192,
      "Ġaccompan": 7193,
      "ÐµÑħ": 7194,
      "ĠBowl": 7195,
      "Ġdocumentary": 7196,
      "ĠMagn": 7197,
      "Ġadvert": 7198,
      "ÑģÑĮ": 7199,
      "oster": 7200,
      "ÐµÑĤÐµ": 7201,
      "Ġfocused": 7202,
      "ĠGulf": 7203,
      "ĠIndust": 7204,
      "ĠAff": 7205,
      "ĠChristians": 7206,
      "ĠCirc": 7207,
      "after": 7208,
      "ĠMilitary": 7209,
      "ĠÐ³Ð»": 7210,
      "ĠMountain": 7211,
      "Most": 7212,
      "bal": 7213,
      "ĠId": 7214,
      "ĠÐĴÑĭ": 7215,
      "Ġplanning": 7216,
      "ĠOp": 7217,
      "ĠInf": 7218,
      "Ġcriticism": 7219,
      "Ġprotein": 7220,
      "Ġdegrees": 7221,
      "ĠHitler": 7222,
      "irty": 7223,
      "Ġarticles": 7224,
      "Ġsust": 7225,
      "Ġpione": 7226,
      "Ġconference": 7227,
      "Ðĳ": 7228,
      "ĠNorwegian": 7229,
      "Ġmessage": 7230,
      "ĠFire": 7231,
      "imens": 7232,
      "ĠÐ¿Ð¾Ð½": 7233,
      "ĠKir": 7234,
      "Ġmanufacturing": 7235,
      "iations": 7236,
      "Ġappropri": 7237,
      "Ġlinear": 7238,
      "jan": 7239,
      "ĠTheod": 7240,
      "ĠEll": 7241,
      "udes": 7242,
      "Ġliberal": 7243,
      "long": 7244,
      "ĠGermans": 7245,
      "Ġperiods": 7246,
      "Ġabsol": 7247,
      "ĠVis": 7248,
      "ĠStation": 7249,
      "Ġfavour": 7250,
      "Ġenemy": 7251,
      "gium": 7252,
      "ĠÐ´Ð¾": 7253,
      "ji": 7254,
      "pass": 7255,
      "Ġstore": 7256,
      "Ġsole": 7257,
      "Ġworship": 7258,
      "adelphia": 7259,
      "Ġnit": 7260,
      "Ġeffectively": 7261,
      "French": 7262,
      "ployment": 7263,
      "ĠWalter": 7264,
      "ĠPoint": 7265,
      "ĠRet": 7266,
      "run": 7267,
      "Ġfundamental": 7268,
      "Ġsuccessor": 7269,
      "1980": 7270,
      "ibl": 7271,
      "ĠRos": 7272,
      "yles": 7273,
      "ĠTaylor": 7274,
      "ranean": 7275,
      "Ġmathematics": 7276,
      "anes": 7277,
      "Ġinher": 7278,
      "ĠPap": 7279,
      "ographics": 7280,
      "ĠDisc": 7281,
      "Ġslaves": 7282,
      "Ġannoun": 7283,
      "avel": 7284,
      "69": 7285,
      "okes": 7286,
      "Ġsovereign": 7287,
      "ĠHindu": 7288,
      "VD": 7289,
      "Ġliquid": 7290,
      "Ġresearc": 7291,
      "Ġhosted": 7292,
      "ĠGi": 7293,
      "ova": 7294,
      "Ġindigenous": 7295,
      "Ġquantum": 7296,
      "ĠAnglo": 7297,
      "ishment": 7298,
      "bec": 7299,
      "Ġrandom": 7300,
      "ĠHans": 7301,
      "appe": 7302,
      "Ġnote": 7303,
      "Christ": 7304,
      "ĠSant": 7305,
      "Ġrepresents": 7306,
      "Ġusage": 7307,
      "rait": 7308,
      "level": 7309,
      "ĠSab": 7310,
      "antly": 7311,
      "Ġphysics": 7312,
      "going": 7313,
      "ĠZh": 7314,
      "ĠTemple": 7315,
      "oa": 7316,
      "ĠAnth": 7317,
      "rac": 7318,
      "Ġairport": 7319,
      "ĠDouglas": 7320,
      "Ġreserv": 7321,
      "RC": 7322,
      "Ġmort": 7323,
      "Ġprocessing": 7324,
      "Ġ1951": 7325,
      "ĠPeace": 7326,
      "rating": 7327,
      "Ġvector": 7328,
      "Ð´Ñĥ": 7329,
      "ĠÐ¼ÑĥÐ¶Ð¸Ðº": 7330,
      "Ġtrust": 7331,
      "Ġfeet": 7332,
      "iop": 7333,
      "Ġperfect": 7334,
      "Ġvast": 7335,
      "Ġpray": 7336,
      "Ġthing": 7337,
      "itual": 7338,
      "ĠTurn": 7339,
      "ĠDet": 7340,
      "Ġconvention": 7341,
      "ĠTechnology": 7342,
      "Ġsleep": 7343,
      "Ġparticles": 7344,
      "Ġconsiderable": 7345,
      "claimed": 7346,
      "ÑĤÑĢ": 7347,
      "rane": 7348,
      "Ġorche": 7349,
      "itional": 7350,
      "ĠÑĤÐ°Ð¼": 7351,
      "ĠCaptain": 7352,
      "Ġscenes": 7353,
      "Ġdropped": 7354,
      "ĠGre": 7355,
      "def": 7356,
      "ĠÑģÐºÐ°Ð·": 7357,
      "apes": 7358,
      "ĠÐ¾ÑĤÐ²": 7359,
      "Ġindicate": 7360,
      "ĠCape": 7361,
      "itarian": 7362,
      "ĠÐ²Ð¾ÑĤ": 7363,
      "Ġcapable": 7364,
      "cers": 7365,
      "ellectual": 7366,
      "ĠJerusalem": 7367,
      "ĠIS": 7368,
      "ĠHard": 7369,
      "ĠLatino": 7370,
      "ĠGil": 7371,
      "eless": 7372,
      "ĠConfeder": 7373,
      "uerto": 7374,
      "athan": 7375,
      "Ġcouple": 7376,
      "mi": 7377,
      "Ġinterpre": 7378,
      "ET": 7379,
      "velt": 7380,
      "attles": 7381,
      "ĠMedic": 7382,
      "Ġyield": 7383,
      "2005": 7384,
      "ĠHome": 7385,
      "2007": 7386,
      "ÐµÐ»Ð¾Ð²ÐµÐº": 7387,
      "Treaties": 7388,
      "Ġagriculture": 7389,
      "Ġstrate": 7390,
      "ĠFle": 7391,
      "ÑĭÑĪ": 7392,
      "outs": 7393,
      "Ġlayer": 7394,
      "Ġstrategy": 7395,
      "ĠLyn": 7396,
      "ĠRoll": 7397,
      "Ġholding": 7398,
      "ĠStone": 7399,
      "chester": 7400,
      "Ġrow": 7401,
      "Ġattributed": 7402,
      "emeter": 7403,
      "ĠSimon": 7404,
      "ĠÐ¿Ð¾Ð¼": 7405,
      "ĠBall": 7406,
      "Ġrefuge": 7407,
      "ulty": 7408,
      "Ġtren": 7409,
      "ĠSic": 7410,
      "Ġvice": 7411,
      "British": 7412,
      "Ġformerly": 7413,
      "Ġalgorithm": 7414,
      "Ġedge": 7415,
      "ĠBrad": 7416,
      "Ġmanner": 7417,
      "Ġspiritual": 7418,
      "Ġdoll": 7419,
      "ĠÐµÐµ": 7420,
      "Ġ75": 7421,
      "Ġprinciples": 7422,
      "ĠApple": 7423,
      "Ġmedicine": 7424,
      "Ġsolar": 7425,
      "idi": 7426,
      "âĪĴ": 7427,
      "Ġcoastal": 7428,
      "ÐºÑĢ": 7429,
      "Ġmir": 7430,
      "ĠÐ²ÑĢÐµÐ¼": 7431,
      "Ġcopies": 7432,
      "oli": 7433,
      "Ġfresh": 7434,
      "AS": 7435,
      "oting": 7436,
      "Ġdiagn": 7437,
      "ĠCommonwealth": 7438,
      "Ġminist": 7439,
      "Ġbat": 7440,
      "Ġ1933": 7441,
      "Ġrepresentation": 7442,
      "Ġemerged": 7443,
      "bar": 7444,
      "ÑĥÐ³": 7445,
      "Ġoperate": 7446,
      "urance": 7447,
      "Ġaccident": 7448,
      "Ġgender": 7449,
      "Ð¸Ð»ÑģÑı": 7450,
      "aby": 7451,
      "Ð¸Ð½Ñĭ": 7452,
      "ĠColon": 7453,
      "Ġlogic": 7454,
      "US": 7455,
      "ĠCommunist": 7456,
      "ictionary": 7457,
      "Ġconcerns": 7458,
      "owa": 7459,
      "ĠÐ²Ð¾Ð·": 7460,
      "ĠÐ¢Ñĭ": 7461,
      "ronze": 7462,
      "Ġformula": 7463,
      "Ġeye": 7464,
      "Ġseparated": 7465,
      "ĠDor": 7466,
      "Ġhydrogen": 7467,
      "Ġdescend": 7468,
      "hand": 7469,
      "Ġcolony": 7470,
      "Ġassumed": 7471,
      "uv": 7472,
      "text": 7473,
      "mers": 7474,
      "ighth": 7475,
      "Ġtaught": 7476,
      "iders": 7477,
      "Ġapart": 7478,
      "ĠPhys": 7479,
      "Ġmassive": 7480,
      "ĠSquare": 7481,
      "Ġvel": 7482,
      "Ð°Ð¶Ð´": 7483,
      "ĠÐ²Ð¾": 7484,
      "!\"": 7485,
      "unch": 7486,
      "ĠAh": 7487,
      "andy": 7488,
      "Ġtransmission": 7489,
      "ĠProtestant": 7490,
      "ugby": 7491,
      "Ġexecuted": 7492,
      "Ġformally": 7493,
      "ĠPass": 7494,
      "Ð°Ð·ÑĭÐ²": 7495,
      "ĠCP": 7496,
      "Ġmanuscript": 7497,
      "Ġaccused": 7498,
      "Ġ1929": 7499,
      "Ġdominant": 7500,
      "Ġmiles": 7501,
      "ĠHebrew": 7502,
      "Ġ1919": 7503,
      "ĠLouisiana": 7504,
      "Ġinstitution": 7505,
      "ipe": 7506,
      "endment": 7507,
      "05": 7508,
      "atab": 7509,
      "ĠProfess": 7510,
      "aration": 7511,
      "ĠLith": 7512,
      "Ġhear": 7513,
      "Ġcooper": 7514,
      "Ġcatal": 7515,
      "Ġroutes": 7516,
      "Ġcharacteristics": 7517,
      "Ġstorage": 7518,
      "osevelt": 7519,
      "Ġmeasured": 7520,
      "Ġinterpretation": 7521,
      "ĠÐ½Ð°ÑĪ": 7522,
      "fare": 7523,
      "ĠAlfred": 7524,
      "ĠBeach": 7525,
      "Ġinterests": 7526,
      "2008": 7527,
      "Ġselect": 7528,
      "ĠAuthor": 7529,
      "ĠProdu": 7530,
      "Ġmac": 7531,
      "ĠMong": 7532,
      "2001": 7533,
      "2006": 7534,
      "ĠMain": 7535,
      "Ġboundary": 7536,
      "adian": 7537,
      "Ġpriest": 7538,
      "overnment": 7539,
      "ĠTennessee": 7540,
      "Ġtesting": 7541,
      "ĠPur": 7542,
      "ÐĹ": 7543,
      "orses": 7544,
      "ĠBCE": 7545,
      "Ġrestaur": 7546,
      "\";": 7547,
      "Ġlie": 7548,
      "ĠLawrence": 7549,
      "esota": 7550,
      "Ġsatisf": 7551,
      "gement": 7552,
      "Ġrelation": 7553,
      "ĠCrown": 7554,
      "ĠLt": 7555,
      "Ġargument": 7556,
      "Ev": 7557,
      "Ġcompounds": 7558,
      "Ġexpedition": 7559,
      "ĠÐ¸Ð¼": 7560,
      "Ġ34": 7561,
      "ĠBang": 7562,
      "Ġprovinces": 7563,
      "ĠTol": 7564,
      "ĠHell": 7565,
      "inding": 7566,
      "Ġjazz": 7567,
      "Ġspaces": 7568,
      "ĠVI": 7569,
      "ĠColorado": 7570,
      "Ġslave": 7571,
      "Ġviewed": 7572,
      "Ġbrothers": 7573,
      "Ġunderstand": 7574,
      "Ġmachines": 7575,
      "Ð½Ñĥ": 7576,
      "Ġclassified": 7577,
      "ether": 7578,
      "Ġtrying": 7579,
      "Ġescape": 7580,
      "ĠBush": 7581,
      "agen": 7582,
      "Ġcomponent": 7583,
      "theless": 7584,
      "ĠÐ»ÐµÑĤ": 7585,
      "Ġsymptoms": 7586,
      "Ġextreme": 7587,
      "Ġguard": 7588,
      "ĠMountains": 7589,
      "Ġaer": 7590,
      "ÐºÐ¾Ð¹": 7591,
      "Ġexplos": 7592,
      "ĠRailway": 7593,
      "Ġentry": 7594,
      "Ġdetect": 7595,
      "ĠJohann": 7596,
      "ĠCel": 7597,
      "ĠMach": 7598,
      "Ġ1917": 7599,
      "Ġkings": 7600,
      "Ġexisted": 7601,
      "ĠDonald": 7602,
      "Ġdescription": 7603,
      "Ġalbums": 7604,
      "OC": 7605,
      "Ġconcentration": 7606,
      "emen": 7607,
      "asure": 7608,
      "Ġrecon": 7609,
      "Ġlot": 7610,
      "Ġresident": 7611,
      "othing": 7612,
      "oca": 7613,
      "Ġachieve": 7614,
      "iterranean": 7615,
      "Ġtruth": 7616,
      "Ð´ÐµÐ»": 7617,
      "ĠSerb": 7618,
      "ÐµÐ½Ð½Ð¾": 7619,
      "Ġdestruction": 7620,
      "olar": 7621,
      "Ġroot": 7622,
      "Ġentitled": 7623,
      "Ġaudio": 7624,
      "Ġmental": 7625,
      "Ġdistributed": 7626,
      "Ġgenre": 7627,
      "Ġdetails": 7628,
      "Ġnormally": 7629,
      "ĠSix": 7630,
      "ĠTurkish": 7631,
      "ructions": 7632,
      "Ġdivor": 7633,
      "ĠRoger": 7634,
      "oscow": 7635,
      "ĠKer": 7636,
      "Ġtraditionally": 7637,
      "World": 7638,
      "ocated": 7639,
      "ĠWalk": 7640,
      "Ġdriver": 7641,
      "Ġdelay": 7642,
      "uties": 7643,
      "Ġ1914": 7644,
      "Ġmodified": 7645,
      "ĠTurkey": 7646,
      "ikh": 7647,
      "Ð°ÑģÑĤ": 7648,
      "ĠDown": 7649,
      "ĠThough": 7650,
      "ĠArk": 7651,
      "eenth": 7652,
      "Ġbirds": 7653,
      "ĠPhiladelphia": 7654,
      "while": 7655,
      "ĠNorman": 7656,
      "Ġstopp": 7657,
      "ĠHoward": 7658,
      "ĠWelsh": 7659,
      "Ġment": 7660,
      "pat": 7661,
      "ĠBol": 7662,
      "Ġtell": 7663,
      "Ġfloor": 7664,
      "Ġ1934": 7665,
      "Ġgradually": 7666,
      "Ġarrested": 7667,
      "Ġphon": 7668,
      "oral": 7669,
      "present": 7670,
      "ĠFried": 7671,
      "Ġkil": 7672,
      "Ġpromoted": 7673,
      "Ġmode": 7674,
      "Ġ1935": 7675,
      "Ġclubs": 7676,
      "ĠÑĥÐ¼": 7677,
      "ĠRomans": 7678,
      "Ġneighborhood": 7679,
      "Ġsenior": 7680,
      "ĠRegister": 7681,
      "Ġatmosphere": 7682,
      "Ġshowing": 7683,
      "ĠApollo": 7684,
      "Ġmart": 7685,
      "ĠMars": 7686,
      "ĠKarl": 7687,
      "ĠMemorial": 7688,
      "ĠCaes": 7689,
      "Ġvisible": 7690,
      "Ġtor": 7691,
      "Ġphysic": 7692,
      "families": 7693,
      "ĠLight": 7694,
      "OM": 7695,
      "Ġinvestment": 7696,
      "Ġstress": 7697,
      "ĠArmen": 7698,
      "ito": 7699,
      "olid": 7700,
      "Ġpurchased": 7701,
      "Ġteaching": 7702,
      "FC": 7703,
      "iang": 7704,
      "Ġreferences": 7705,
      "ĠErn": 7706,
      "Ġoperates": 7707,
      "ĨĴ": 7708,
      "Ġcircuit": 7709,
      "Ġmoral": 7710,
      "Ãº": 7711,
      "ĠMes": 7712,
      "Ġagent": 7713,
      "certain": 7714,
      "Ġdiet": 7715,
      "2002": 7716,
      "Ġshortly": 7717,
      "Ġstrict": 7718,
      "Ġpit": 7719,
      "chang": 7720,
      "rient": 7721,
      "Ġitems": 7722,
      "ĠÐ¿ÑĢÐµÐ´": 7723,
      "ĠSyd": 7724,
      "ÑĥÑĪÐºÐ°": 7725,
      "aver": 7726,
      "alse": 7727,
      "Ġstable": 7728,
      "ĠJos": 7729,
      "stan": 7730,
      "ĠAbd": 7731,
      "Ġprofessor": 7732,
      "Ġceremony": 7733,
      "Ġcorresponding": 7734,
      "je": 7735,
      "Ġ1928": 7736,
      "ĠSwiss": 7737,
      "ruption": 7738,
      "ĠÐºÑĤÐ¾": 7739,
      "ĠÐ·Ð°Ðº": 7740,
      "Ġadaptation": 7741,
      "Ġchampionship": 7742,
      "Ġproof": 7743,
      "ĠKu": 7744,
      "ÐŁÑĢ": 7745,
      "ĠAz": 7746,
      "ĠHo": 7747,
      "stood": 7748,
      "othe": 7749,
      "Ġspeak": 7750,
      "inner": 7751,
      "Com": 7752,
      "Ġselection": 7753,
      "Ġextension": 7754,
      "ĠRights": 7755,
      "Ġguitarist": 7756,
      "ivation": 7757,
      "uled": 7758,
      "Ġpages": 7759,
      "ĠGrant": 7760,
      "ĠÐĿÐµ": 7761,
      "Ġmand": 7762,
      "Ġmetropolitan": 7763,
      "lyn": 7764,
      "ĠKl": 7765,
      "Ġdating": 7766,
      "otos": 7767,
      "Ġjudge": 7768,
      "ĠRoosevelt": 7769,
      "ĠDec": 7770,
      "IT": 7771,
      "Ġplate": 7772,
      "ĠMerc": 7773,
      "ussia": 7774,
      "Ġcriticized": 7775,
      "urd": 7776,
      "utenant": 7777,
      "ĠBah": 7778,
      "Ġincident": 7779,
      "ĠSamuel": 7780,
      "ĠLabour": 7781,
      "Ġtask": 7782,
      "chen": 7783,
      "ovak": 7784,
      "trans": 7785,
      "Ġtrav": 7786,
      "ĠÐ½Ð¾Ð²": 7787,
      "ĠÑĤÐµÐ±Ðµ": 7788,
      "Ġhall": 7789,
      "ĠBeat": 7790,
      "iology": 7791,
      "ossible": 7792,
      "Ġhockey": 7793,
      "ĠPortugal": 7794,
      "Ġinnov": 7795,
      "Ġsoul": 7796,
      "press": 7797,
      "Ġspons": 7798,
      "ĠHungarian": 7799,
      "ĠTy": 7800,
      "Ġcalling": 7801,
      "Ġvariable": 7802,
      "low": 7803,
      "Ġreputation": 7804,
      "Roman": 7805,
      "ĠAges": 7806,
      "Ġunf": 7807,
      "ancell": 7808,
      "bishop": 7809,
      "ifies": 7810,
      "Ġobl": 7811,
      "Histor": 7812,
      "Ġnominated": 7813,
      "ĠOnly": 7814,
      "Ġdominated": 7815,
      "Ġwaters": 7816,
      "engers": 7817,
      "ourney": 7818,
      "ĠÐ§ÑĤÐ¾": 7819,
      "ĠKentucky": 7820,
      "ĠWhit": 7821,
      "dam": 7822,
      "itzerland": 7823,
      "ĠMinistry": 7824,
      "Ġbran": 7825,
      "ĠDu": 7826,
      "ĠWell": 7827,
      "Ġlegislation": 7828,
      "1999": 7829,
      "Ġminimum": 7830,
      "ĠÐ¾Ð½Ð¸": 7831,
      "Ġcandidates": 7832,
      "ĠRena": 7833,
      "omes": 7834,
      "Ġpersons": 7835,
      "Ġthousand": 7836,
      "ĠHong": 7837,
      "Ġlearned": 7838,
      "inite": 7839,
      "anz": 7840,
      "Ġcomed": 7841,
      "ĠAfghanistan": 7842,
      "Ġfictional": 7843,
      "ĠÑĩÐµÐ¼": 7844,
      "ĠCur": 7845,
      "ridges": 7846,
      "Ã¢": 7847,
      "Ġwrites": 7848,
      "Another": 7849,
      "ĠSel": 7850,
      "Ġneither": 7851,
      "ĠÑĩÐµÐ»Ð¾Ð²ÐµÐº": 7852,
      "Ġ1932": 7853,
      "Ġstarring": 7854,
      "ĠMicrosoft": 7855,
      "ĠSunday": 7856,
      "Ġsettlers": 7857,
      "ĠÃī": 7858,
      "ĠFranklin": 7859,
      "SR": 7860,
      "ĠCatal": 7861,
      "Ġregime": 7862,
      "Ġtreated": 7863,
      "mus": 7864,
      "ĠÐŃÑĤÐ¾": 7865,
      "vements": 7866,
      "Ġaw": 7867,
      "Ð¸Ð¿": 7868,
      "Ġcited": 7869,
      "icas": 7870,
      "Ġthick": 7871,
      "Ġ37": 7872,
      "Ġcable": 7873,
      "Ġbeat": 7874,
      "Ġopinion": 7875,
      "Ġhardware": 7876,
      "Ġcinem": 7877,
      "Ġmarkets": 7878,
      "Ġattached": 7879,
      "portation": 7880,
      "Ġworth": 7881,
      "rings": 7882,
      "unte": 7883,
      "ĠGram": 7884,
      "Ġgenerated": 7885,
      "Ġtransform": 7886,
      "ĠYears": 7887,
      "who": 7888,
      "ĠRem": 7889,
      "Ġelectrical": 7890,
      "Ġensure": 7891,
      "ĠFamily": 7892,
      "uum": 7893,
      "ĠRen": 7894,
      "Ġcelebrated": 7895,
      "Ġoccas": 7896,
      "Ġwithdraw": 7897,
      "ĠHal": 7898,
      "eding": 7899,
      "ML": 7900,
      "Ġoffices": 7901,
      "ĠToday": 7902,
      "Ġwatch": 7903,
      "owned": 7904,
      "Ġcheck": 7905,
      "Ġsomewhat": 7906,
      "Ġrelationships": 7907,
      "ĠBad": 7908,
      "Ġgene": 7909,
      "omorph": 7910,
      "Ġ1921": 7911,
      "Ġearned": 7912,
      "flu": 7913,
      "cha": 7914,
      "Ġexplained": 7915,
      "Ġfranchise": 7916,
      "ÑĤÐ¸": 7917,
      "Ġalleg": 7918,
      "Ġvent": 7919,
      "inally": 7920,
      "aza": 7921,
      "Ġcommit": 7922,
      "scape": 7923,
      "render": 7924,
      "Ġstrike": 7925,
      "Ġalumni": 7926,
      "Ð½Ð¸ÑĨ": 7927,
      "lo": 7928,
      "otal": 7929,
      "Ġdrawn": 7930,
      "erted": 7931,
      "Ġstorm": 7932,
      "ĠLind": 7933,
      "tym": 7934,
      "2004": 7935,
      "din": 7936,
      "Ġpractical": 7937,
      "Ġtry": 7938,
      "rot": 7939,
      "ĠÐ¼Ð¾Ð»": 7940,
      "ĠCommand": 7941,
      "Ġacknow": 7942,
      "Ġpremi": 7943,
      "Ġcultures": 7944,
      "elle": 7945,
      "Ġcommitted": 7946,
      "ĠJordan": 7947,
      "Ġ1922": 7948,
      "Ġprepared": 7949,
      "ĠSom": 7950,
      "Ġconstruct": 7951,
      "Ġdies": 7952,
      "igious": 7953,
      "Ġrepresenting": 7954,
      "Ġsed": 7955,
      "Ġessential": 7956,
      "Ġevolved": 7957,
      "Ġmountains": 7958,
      "ĠAncient": 7959,
      "And": 7960,
      "elly": 7961,
      "ĠGDP": 7962,
      "ĠÐ½Ð¸Ðº": 7963,
      "Ġsigns": 7964,
      "Ġ1924": 7965,
      "ĠMoscow": 7966,
      "ĠMedal": 7967,
      "ĠÐµÐ¼Ñĥ": 7968,
      "ĠMinnesota": 7969,
      "Ġhal": 7970,
      "Ġnav": 7971,
      "ĠEc": 7972,
      "ĠWolf": 7973,
      "Ġportrayed": 7974,
      "idel": 7975,
      "Ġincorpor": 7976,
      "ĠCountry": 7977,
      "Ġwing": 7978,
      "Ġhyper": 7979,
      "ĠHospital": 7980,
      "ĠStock": 7981,
      "ĠBand": 7982,
      "agu": 7983,
      "Ġpassing": 7984,
      "53": 7985,
      "ushed": 7986,
      "Ġdeleg": 7987,
      "Ġsupposed": 7988,
      "eton": 7989,
      "aser": 7990,
      "2003": 7991,
      "Ġdepos": 7992,
      "Ġdebut": 7993,
      "idae": 7994,
      "Bibliography": 7995,
      "Ġtemple": 7996,
      "Ġinvolves": 7997,
      "Ġrebell": 7998,
      "vi": 7999
    },
    "merges": [
      [
        "Ġ",
        "t"
      ],
      [
        "h",
        "e"
      ],
      [
        "Ġ",
        "a"
      ],
      [
        "i",
        "n"
      ],
      [
        "e",
        "r"
      ],
      [
        "Ġt",
        "he"
      ],
      [
        "o",
        "n"
      ],
      [
        "r",
        "e"
      ],
      [
        "Ġ",
        "o"
      ],
      [
        "a",
        "n"
      ],
      [
        "a",
        "t"
      ],
      [
        "e",
        "n"
      ],
      [
        "Ġ",
        "s"
      ],
      [
        "e",
        "d"
      ],
      [
        "i",
        "s"
      ],
      [
        "o",
        "r"
      ],
      [
        "e",
        "s"
      ],
      [
        "Ġ",
        "w"
      ],
      [
        "i",
        "t"
      ],
      [
        "Ġ",
        "c"
      ],
      [
        "a",
        "l"
      ],
      [
        "Ġo",
        "f"
      ],
      [
        "a",
        "r"
      ],
      [
        "Ġa",
        "n"
      ],
      [
        "Ġ",
        "in"
      ],
      [
        "Ġ",
        "f"
      ],
      [
        "Ġ",
        "p"
      ],
      [
        "Ġ",
        "b"
      ],
      [
        "i",
        "c"
      ],
      [
        "Ġan",
        "d"
      ],
      [
        "in",
        "g"
      ],
      [
        "i",
        "on"
      ],
      [
        "a",
        "s"
      ],
      [
        "r",
        "o"
      ],
      [
        "Ġ",
        "m"
      ],
      [
        "Ġt",
        "o"
      ],
      [
        "Ġ",
        "d"
      ],
      [
        "l",
        "e"
      ],
      [
        "o",
        "u"
      ],
      [
        "Ġ",
        "h"
      ],
      [
        "Ġ",
        "Ð"
      ],
      [
        "en",
        "t"
      ],
      [
        "i",
        "l"
      ],
      [
        "Ġ",
        "S"
      ],
      [
        "Ġ",
        "A"
      ],
      [
        "o",
        "m"
      ],
      [
        "Ġ",
        "T"
      ],
      [
        "Ġ",
        "C"
      ],
      [
        "s",
        "t"
      ],
      [
        "Ġ",
        "re"
      ],
      [
        "e",
        "l"
      ],
      [
        "c",
        "t"
      ],
      [
        "Ġ",
        "1"
      ],
      [
        "o",
        "l"
      ],
      [
        "Ġ",
        "l"
      ],
      [
        "Ġ",
        "e"
      ],
      [
        "Ġ",
        "n"
      ],
      [
        "Ð",
        "¾"
      ],
      [
        "Ġt",
        "h"
      ],
      [
        "a",
        "m"
      ],
      [
        "Ġ",
        "("
      ],
      [
        "u",
        "s"
      ],
      [
        "e",
        "t"
      ],
      [
        "Ġ",
        "M"
      ],
      [
        "Ð",
        "°"
      ],
      [
        "a",
        "d"
      ],
      [
        "at",
        "ion"
      ],
      [
        "u",
        "r"
      ],
      [
        "Ð",
        "µ"
      ],
      [
        "l",
        "y"
      ],
      [
        "i",
        "v"
      ],
      [
        "c",
        "h"
      ],
      [
        "i",
        "d"
      ],
      [
        "c",
        "e"
      ],
      [
        "i",
        "m"
      ],
      [
        "u",
        "n"
      ],
      [
        "Ġ",
        "B"
      ],
      [
        "Ġ",
        "P"
      ],
      [
        "i",
        "g"
      ],
      [
        "o",
        "t"
      ],
      [
        "Ġ",
        "is"
      ],
      [
        "Ġ",
        "I"
      ],
      [
        "u",
        "t"
      ],
      [
        "Ġf",
        "or"
      ],
      [
        "Ġ",
        "g"
      ],
      [
        "Ñ",
        "Ĥ"
      ],
      [
        "i",
        "r"
      ],
      [
        "er",
        "s"
      ],
      [
        "Ġa",
        "s"
      ],
      [
        "Ġb",
        "e"
      ],
      [
        "Ġ",
        "on"
      ],
      [
        "Ġw",
        "as"
      ],
      [
        "o",
        "w"
      ],
      [
        "is",
        "t"
      ],
      [
        "Ġ",
        "H"
      ],
      [
        "ĠT",
        "he"
      ],
      [
        "r",
        "a"
      ],
      [
        "u",
        "l"
      ],
      [
        "it",
        "h"
      ],
      [
        "e",
        "m"
      ],
      [
        "Ð",
        "¸"
      ],
      [
        "he",
        "r"
      ],
      [
        "Ġ",
        "R"
      ],
      [
        "t",
        "er"
      ],
      [
        "Ġs",
        "t"
      ],
      [
        "a",
        "y"
      ],
      [
        "Ġw",
        "ith"
      ],
      [
        "v",
        "er"
      ],
      [
        "t",
        "h"
      ],
      [
        "Ġ",
        "G"
      ],
      [
        "Ġ",
        "D"
      ],
      [
        "Ġ",
        "L"
      ],
      [
        "Ġ",
        "F"
      ],
      [
        "o",
        "s"
      ],
      [
        "Ġb",
        "y"
      ],
      [
        "Ġ",
        "2"
      ],
      [
        "Ġ1",
        "9"
      ],
      [
        "an",
        "d"
      ],
      [
        "Ġc",
        "on"
      ],
      [
        "Ġ",
        "E"
      ],
      [
        "Ġa",
        "l"
      ],
      [
        "Ġw",
        "h"
      ],
      [
        "Ð¾",
        "Ð"
      ],
      [
        "Ñ",
        "ģ"
      ],
      [
        "'",
        "s"
      ],
      [
        "Ġth",
        "at"
      ],
      [
        "u",
        "m"
      ],
      [
        "Ġ",
        "W"
      ],
      [
        "o",
        "p"
      ],
      [
        "Ġ",
        "N"
      ],
      [
        "Ñ",
        "Ģ"
      ],
      [
        "a",
        "g"
      ],
      [
        "â",
        "Ģ"
      ],
      [
        "es",
        "t"
      ],
      [
        "r",
        "i"
      ],
      [
        "ro",
        "m"
      ],
      [
        "ou",
        "n"
      ],
      [
        "o",
        "d"
      ],
      [
        "a",
        "c"
      ],
      [
        "Ġp",
        "ro"
      ],
      [
        "a",
        "v"
      ],
      [
        "Ġd",
        "e"
      ],
      [
        "Ð",
        "½"
      ],
      [
        "Ġ",
        "J"
      ],
      [
        "Ġ",
        "\""
      ],
      [
        "Ġ",
        "v"
      ],
      [
        "Ġo",
        "r"
      ],
      [
        "re",
        "s"
      ],
      [
        "i",
        "an"
      ],
      [
        "i",
        "f"
      ],
      [
        "it",
        "y"
      ],
      [
        "i",
        "es"
      ],
      [
        "a",
        "in"
      ],
      [
        "Ġ",
        "it"
      ],
      [
        "0",
        "0"
      ],
      [
        "Ġc",
        "om"
      ],
      [
        "at",
        "e"
      ],
      [
        "Ġa",
        "t"
      ],
      [
        "a",
        "b"
      ],
      [
        "âĢ",
        "ĵ"
      ],
      [
        "Ġf",
        "rom"
      ],
      [
        "Ġa",
        "re"
      ],
      [
        "o",
        "c"
      ],
      [
        "Ġs",
        "u"
      ],
      [
        "p",
        "e"
      ],
      [
        "Ġ",
        "he"
      ],
      [
        "or",
        "t"
      ],
      [
        "Ġe",
        "x"
      ],
      [
        "Ñ",
        "ĥ"
      ],
      [
        "q",
        "u"
      ],
      [
        "u",
        "d"
      ],
      [
        "Ġ",
        "O"
      ],
      [
        "ic",
        "h"
      ],
      [
        "Ð°",
        "Ð"
      ],
      [
        "ar",
        "t"
      ],
      [
        "s",
        "e"
      ],
      [
        "ĠI",
        "n"
      ],
      [
        "il",
        "l"
      ],
      [
        "Ġs",
        "e"
      ],
      [
        "l",
        "d"
      ],
      [
        "Ġ",
        "r"
      ],
      [
        "an",
        "t"
      ],
      [
        "Ġ",
        "U"
      ],
      [
        "o",
        "re"
      ],
      [
        "e",
        "w"
      ],
      [
        "es",
        "s"
      ],
      [
        "al",
        "l"
      ],
      [
        "i",
        "a"
      ],
      [
        "m",
        "ent"
      ],
      [
        "b",
        "er"
      ],
      [
        "i",
        "al"
      ],
      [
        "ig",
        "h"
      ],
      [
        "ar",
        "d"
      ],
      [
        "a",
        "p"
      ],
      [
        "Ġ",
        "un"
      ],
      [
        "at",
        "ed"
      ],
      [
        "a",
        "k"
      ],
      [
        "ic",
        "al"
      ],
      [
        "Ġh",
        "is"
      ],
      [
        "iv",
        "e"
      ],
      [
        "er",
        "e"
      ],
      [
        "o",
        "g"
      ],
      [
        "g",
        "e"
      ],
      [
        "Ġ",
        "K"
      ],
      [
        "Ðµ",
        "Ð"
      ],
      [
        "is",
        "h"
      ],
      [
        "ar",
        "y"
      ],
      [
        "en",
        "d"
      ],
      [
        "i",
        "p"
      ],
      [
        "Ġw",
        "ere"
      ],
      [
        "Ġc",
        "h"
      ],
      [
        "u",
        "re"
      ],
      [
        "ct",
        "ion"
      ],
      [
        "u",
        "p"
      ],
      [
        "Ġwh",
        "ich"
      ],
      [
        "in",
        "e"
      ],
      [
        "g",
        "h"
      ],
      [
        "as",
        "t"
      ],
      [
        "ĠS",
        "t"
      ],
      [
        "o",
        "v"
      ],
      [
        "t",
        "her"
      ],
      [
        "o",
        "st"
      ],
      [
        "m",
        "er"
      ],
      [
        "oun",
        "t"
      ],
      [
        "T",
        "he"
      ],
      [
        "Ġ",
        "us"
      ],
      [
        "el",
        "l"
      ],
      [
        "ou",
        "r"
      ],
      [
        "Ġ",
        "Ċ"
      ],
      [
        "Ġp",
        "l"
      ],
      [
        "c",
        "l"
      ],
      [
        "r",
        "an"
      ],
      [
        "on",
        "g"
      ],
      [
        "or",
        "d"
      ],
      [
        "Ġ",
        "le"
      ],
      [
        "e",
        "ar"
      ],
      [
        "Ġ",
        "âĢĵ"
      ],
      [
        "p",
        "p"
      ],
      [
        "p",
        "t"
      ],
      [
        "ĠC",
        "h"
      ],
      [
        "am",
        "e"
      ],
      [
        "Ġ",
        "k"
      ],
      [
        "u",
        "st"
      ],
      [
        "Ġn",
        "ot"
      ],
      [
        "s",
        "o"
      ],
      [
        "av",
        "e"
      ],
      [
        "Ġ",
        "y"
      ],
      [
        "Ñ",
        "ı"
      ],
      [
        "r",
        "it"
      ],
      [
        ")",
        ","
      ],
      [
        "u",
        "b"
      ],
      [
        "Ñ",
        "Į"
      ],
      [
        "1",
        "9"
      ],
      [
        "p",
        "er"
      ],
      [
        "i",
        "re"
      ],
      [
        "Ġ",
        "V"
      ],
      [
        "om",
        "e"
      ],
      [
        "ou",
        "s"
      ],
      [
        "Ġ2",
        "0"
      ],
      [
        "Ġs",
        "h"
      ],
      [
        "d",
        "er"
      ],
      [
        "igh",
        "t"
      ],
      [
        "Ð¸",
        "Ð"
      ],
      [
        "Ġcom",
        "p"
      ],
      [
        "Ñ",
        "ĭ"
      ],
      [
        "e",
        "ct"
      ],
      [
        "i",
        "z"
      ],
      [
        "c",
        "c"
      ],
      [
        "f",
        "f"
      ],
      [
        "it",
        "ion"
      ],
      [
        "r",
        "y"
      ],
      [
        "d",
        "u"
      ],
      [
        "ĠÐ",
        "¿"
      ],
      [
        "Ġal",
        "so"
      ],
      [
        "Ġh",
        "ad"
      ],
      [
        "k",
        "s"
      ],
      [
        "Ġcon",
        "t"
      ],
      [
        "Ġa",
        "r"
      ],
      [
        "i",
        "e"
      ],
      [
        "Ġin",
        "t"
      ],
      [
        "ation",
        "s"
      ],
      [
        "ig",
        "n"
      ],
      [
        "ag",
        "e"
      ],
      [
        "as",
        "s"
      ],
      [
        "ul",
        "t"
      ],
      [
        "ic",
        "an"
      ],
      [
        "en",
        "ce"
      ],
      [
        "re",
        "n"
      ],
      [
        "Ñ",
        "ĩ"
      ],
      [
        "m",
        "an"
      ],
      [
        "Ġh",
        "ave"
      ],
      [
        "f",
        "er"
      ],
      [
        "p",
        "l"
      ],
      [
        "ĠÐ",
        "²"
      ],
      [
        "ĠU",
        "n"
      ],
      [
        "id",
        "e"
      ],
      [
        "i",
        "b"
      ],
      [
        "ĠÐ",
        "½"
      ],
      [
        "Ġh",
        "as"
      ],
      [
        "u",
        "e"
      ],
      [
        "Ġa",
        "d"
      ],
      [
        "or",
        "y"
      ],
      [
        "Ġ",
        "Ñģ"
      ],
      [
        "Ġ1",
        "8"
      ],
      [
        "en",
        "s"
      ],
      [
        "Ġw",
        "he"
      ],
      [
        "ter",
        "n"
      ],
      [
        "p",
        "h"
      ],
      [
        "ir",
        "st"
      ],
      [
        "at",
        "es"
      ],
      [
        "Ġc",
        "l"
      ],
      [
        "Ġit",
        "s"
      ],
      [
        "c",
        "es"
      ],
      [
        "al",
        "ly"
      ],
      [
        "Ġre",
        "s"
      ],
      [
        "ou",
        "t"
      ],
      [
        "at",
        "er"
      ],
      [
        "Ð",
        "º"
      ],
      [
        "Ġa",
        "b"
      ],
      [
        "Ġw",
        "or"
      ],
      [
        "Ġthe",
        "ir"
      ],
      [
        "Ð",
        "»"
      ],
      [
        ")",
        "."
      ],
      [
        "Ġp",
        "art"
      ],
      [
        "ow",
        "n"
      ],
      [
        "ĠT",
        "h"
      ],
      [
        "ou",
        "ld"
      ],
      [
        "Ġb",
        "ut"
      ],
      [
        "r",
        "u"
      ],
      [
        "Ġp",
        "er"
      ],
      [
        "a",
        "re"
      ],
      [
        "a",
        "ct"
      ],
      [
        "an",
        "g"
      ],
      [
        "o",
        "ver"
      ],
      [
        "Ġal",
        "l"
      ],
      [
        "ic",
        "e"
      ],
      [
        "im",
        "e"
      ],
      [
        "re",
        "e"
      ],
      [
        "cl",
        "ud"
      ],
      [
        "on",
        "d"
      ],
      [
        "ac",
        "k"
      ],
      [
        "Ġo",
        "ther"
      ],
      [
        "Ġ2",
        "00"
      ],
      [
        "l",
        "and"
      ],
      [
        "I",
        "n"
      ],
      [
        "Ġf",
        "irst"
      ],
      [
        "res",
        "s"
      ],
      [
        "k",
        "e"
      ],
      [
        "Ġ",
        "im"
      ],
      [
        "e",
        "p"
      ],
      [
        "Ġm",
        "an"
      ],
      [
        "Ġ",
        "ro"
      ],
      [
        "Ġth",
        "is"
      ],
      [
        "Ġd",
        "is"
      ],
      [
        "ic",
        "t"
      ],
      [
        "he",
        "d"
      ],
      [
        "er",
        "v"
      ],
      [
        "Ġon",
        "e"
      ],
      [
        "w",
        "o"
      ],
      [
        "Ġbe",
        "c"
      ],
      [
        "f",
        "ter"
      ],
      [
        "el",
        "y"
      ],
      [
        "un",
        "d"
      ],
      [
        "Ġwh",
        "o"
      ],
      [
        "a",
        "ch"
      ],
      [
        "Ġc",
        "an"
      ],
      [
        "p",
        "ort"
      ],
      [
        "Ġ20",
        "1"
      ],
      [
        "ation",
        "al"
      ],
      [
        "i",
        "le"
      ],
      [
        "Ġ",
        "j"
      ],
      [
        "Ġ",
        "en"
      ],
      [
        "ion",
        "s"
      ],
      [
        "a",
        "ce"
      ],
      [
        ".",
        "."
      ],
      [
        "Ġin",
        "clud"
      ],
      [
        "t",
        "e"
      ],
      [
        "ĠI",
        "t"
      ],
      [
        "o",
        "k"
      ],
      [
        "ub",
        "l"
      ],
      [
        "ĠA",
        "n"
      ],
      [
        "it",
        "ed"
      ],
      [
        "ĠA",
        "mer"
      ],
      [
        "e",
        "c"
      ],
      [
        "ab",
        "le"
      ],
      [
        "Ġbe",
        "en"
      ],
      [
        "u",
        "gh"
      ],
      [
        "Ġ",
        "3"
      ],
      [
        "Ġt",
        "e"
      ],
      [
        "oun",
        "d"
      ],
      [
        "v",
        "el"
      ],
      [
        "Ġy",
        "ear"
      ],
      [
        "ĠA",
        "l"
      ],
      [
        "or",
        "m"
      ],
      [
        "a",
        "w"
      ],
      [
        "os",
        "e"
      ],
      [
        "or",
        "s"
      ],
      [
        "it",
        "e"
      ],
      [
        "ol",
        "d"
      ],
      [
        "ol",
        "l"
      ],
      [
        "ent",
        "s"
      ],
      [
        "c",
        "ed"
      ],
      [
        "w",
        "e"
      ],
      [
        "Ġcom",
        "m"
      ],
      [
        "Ġre",
        "c"
      ],
      [
        "n",
        "e"
      ],
      [
        "Ð",
        "´"
      ],
      [
        "Ġs",
        "p"
      ],
      [
        "Ġp",
        "re"
      ],
      [
        "on",
        "e"
      ],
      [
        "ur",
        "ing"
      ],
      [
        "Ġa",
        "g"
      ],
      [
        "Ġs",
        "c"
      ],
      [
        "ol",
        "og"
      ],
      [
        "ou",
        "gh"
      ],
      [
        "ĠH",
        "e"
      ],
      [
        "ad",
        "e"
      ],
      [
        "Ġd",
        "es"
      ],
      [
        "at",
        "h"
      ],
      [
        "Ġs",
        "y"
      ],
      [
        "Ðµ",
        "ÑĤ"
      ],
      [
        "in",
        "t"
      ],
      [
        "l",
        "es"
      ],
      [
        "ar",
        "k"
      ],
      [
        "on",
        "s"
      ],
      [
        "am",
        "p"
      ],
      [
        "Ġt",
        "wo"
      ],
      [
        "Ġc",
        "ount"
      ],
      [
        "ÑĤ",
        "Ð¾"
      ],
      [
        "Ġ",
        "-"
      ],
      [
        "as",
        "e"
      ],
      [
        "o",
        "b"
      ],
      [
        "Ġm",
        "ore"
      ],
      [
        "ĠE",
        "n"
      ],
      [
        "Ð",
        "²"
      ],
      [
        "i",
        "ed"
      ],
      [
        "Ġthe",
        "y"
      ],
      [
        "Ġ",
        "Y"
      ],
      [
        "Ġint",
        "o"
      ],
      [
        "ĠAmer",
        "ican"
      ],
      [
        "Ġo",
        "ver"
      ],
      [
        "ic",
        "s"
      ],
      [
        "Ñ",
        "Ī"
      ],
      [
        "an",
        "ce"
      ],
      [
        "w",
        "n"
      ],
      [
        "Ġe",
        "v"
      ],
      [
        "Ġn",
        "e"
      ],
      [
        "Ġm",
        "e"
      ],
      [
        "Ġc",
        "ent"
      ],
      [
        "re",
        "at"
      ],
      [
        "Ġp",
        "r"
      ],
      [
        "Ġsu",
        "ch"
      ],
      [
        "Ġ",
        "Ġ"
      ],
      [
        "a",
        "us"
      ],
      [
        "is",
        "s"
      ],
      [
        "Ġs",
        "pe"
      ],
      [
        "m",
        "s"
      ],
      [
        "ĠA",
        "r"
      ],
      [
        "ĠÐ",
        "º"
      ],
      [
        "Ġus",
        "ed"
      ],
      [
        "Ġo",
        "ut"
      ],
      [
        "o",
        "od"
      ],
      [
        "Ġm",
        "ost"
      ],
      [
        "an",
        "s"
      ],
      [
        "Ġ",
        "ra"
      ],
      [
        "Ġcon",
        "s"
      ],
      [
        "Ġe",
        "le"
      ],
      [
        "il",
        "d"
      ],
      [
        "iv",
        "ers"
      ],
      [
        "Â",
        "ł"
      ],
      [
        "Ġin",
        "d"
      ],
      [
        "Ðµ",
        "Ð½"
      ],
      [
        "ran",
        "s"
      ],
      [
        "Ġb",
        "et"
      ],
      [
        "Ġa",
        "fter"
      ],
      [
        "ing",
        "s"
      ],
      [
        "Ġre",
        "l"
      ],
      [
        "ri",
        "b"
      ],
      [
        "a",
        "il"
      ],
      [
        "as",
        "ed"
      ],
      [
        "en",
        "er"
      ],
      [
        "o",
        "y"
      ],
      [
        "ul",
        "ar"
      ],
      [
        "ur",
        "y"
      ],
      [
        "Ġ19",
        "9"
      ],
      [
        "Ġ",
        "up"
      ],
      [
        "t",
        "s"
      ],
      [
        "Ġp",
        "e"
      ],
      [
        "Ġg",
        "ro"
      ],
      [
        "in",
        "d"
      ],
      [
        "Ġa",
        "ct"
      ],
      [
        "u",
        "al"
      ],
      [
        "Ġp",
        "ol"
      ],
      [
        "Ġpl",
        "ay"
      ],
      [
        "is",
        "m"
      ],
      [
        "ĠÐ",
        "¾"
      ],
      [
        "Ġun",
        "der"
      ],
      [
        "Ġ",
        "4"
      ],
      [
        "ro",
        "ugh"
      ],
      [
        "Ġk",
        "n"
      ],
      [
        "Ġre",
        "g"
      ],
      [
        "ĠÐ",
        "´"
      ],
      [
        "ĠM",
        "ar"
      ],
      [
        "i",
        "ous"
      ],
      [
        "f",
        "t"
      ],
      [
        "Ġat",
        "t"
      ],
      [
        "u",
        "c"
      ],
      [
        "Ġth",
        "an"
      ],
      [
        "Ġ",
        "ÑĤ"
      ],
      [
        "Ġn",
        "ew"
      ],
      [
        "Ñ",
        "ħ"
      ],
      [
        "2",
        "0"
      ],
      [
        "ĠÐ",
        "¸"
      ],
      [
        "Ġt",
        "ime"
      ],
      [
        "ĠÐ",
        "¼"
      ],
      [
        "Ġp",
        "op"
      ],
      [
        "Ġ",
        "her"
      ],
      [
        "or",
        "n"
      ],
      [
        "Ġa",
        "pp"
      ],
      [
        "we",
        "en"
      ],
      [
        "Ġpro",
        "du"
      ],
      [
        "ak",
        "e"
      ],
      [
        "g",
        "an"
      ],
      [
        "it",
        "ies"
      ],
      [
        "Ġw",
        "ould"
      ],
      [
        "Ð¾Ð",
        "²"
      ],
      [
        "Ġof",
        "f"
      ],
      [
        "re",
        "d"
      ],
      [
        "ot",
        "h"
      ],
      [
        "u",
        "g"
      ],
      [
        "Ġfor",
        "m"
      ],
      [
        "Ġin",
        "c"
      ],
      [
        "op",
        "le"
      ],
      [
        "Ġt",
        "r"
      ],
      [
        "i",
        "o"
      ],
      [
        "r",
        "on"
      ],
      [
        "Ġf",
        "il"
      ],
      [
        "Ġs",
        "ome"
      ],
      [
        "ĠN",
        "ew"
      ],
      [
        "ur",
        "n"
      ],
      [
        "\"",
        "."
      ],
      [
        "s",
        "s"
      ],
      [
        "Ñģ",
        "ÑĤ"
      ],
      [
        "id",
        "ent"
      ],
      [
        "st",
        "em"
      ],
      [
        "Ġwhe",
        "n"
      ],
      [
        "Ġon",
        "ly"
      ],
      [
        "o",
        "h"
      ],
      [
        "over",
        "n"
      ],
      [
        "ĠC",
        "om"
      ],
      [
        "Ġbet",
        "ween"
      ],
      [
        "Ġsu",
        "b"
      ],
      [
        "ic",
        "k"
      ],
      [
        "if",
        "ic"
      ],
      [
        "w",
        "ard"
      ],
      [
        "Ġw",
        "e"
      ],
      [
        "Ð¸",
        "ÑĤ"
      ],
      [
        "r",
        "am"
      ],
      [
        "Ġe",
        "ar"
      ],
      [
        "Ġthe",
        "re"
      ],
      [
        "Ġp",
        "h"
      ],
      [
        "Ġs",
        "o"
      ],
      [
        "i",
        "et"
      ],
      [
        "Ñĥ",
        "Ð"
      ],
      [
        "Ġd",
        "o"
      ],
      [
        "at",
        "ive"
      ],
      [
        "em",
        "ber"
      ],
      [
        "r",
        "al"
      ],
      [
        "Ġa",
        "cc"
      ],
      [
        "Ġin",
        "ter"
      ],
      [
        "g",
        "l"
      ],
      [
        "t",
        "en"
      ],
      [
        "y",
        "s"
      ],
      [
        "f",
        "orm"
      ],
      [
        "is",
        "hed"
      ],
      [
        "in",
        "ce"
      ],
      [
        "v",
        "e"
      ],
      [
        "ĠTh",
        "is"
      ],
      [
        "Ġl",
        "ar"
      ],
      [
        "Ñ",
        "İ"
      ],
      [
        "Ġn",
        "um"
      ],
      [
        "Ġ",
        "5"
      ],
      [
        "Ġp",
        "o"
      ],
      [
        "he",
        "n"
      ],
      [
        "ow",
        "er"
      ],
      [
        "ĠD",
        "e"
      ],
      [
        "Ġ",
        "qu"
      ],
      [
        "ou",
        "th"
      ],
      [
        "c",
        "ial"
      ],
      [
        "al",
        "s"
      ],
      [
        "t",
        "on"
      ],
      [
        "ar",
        "s"
      ],
      [
        "Ġp",
        "res"
      ],
      [
        "e",
        "ver"
      ],
      [
        "Ð°Ð",
        "»"
      ],
      [
        "Ġyear",
        "s"
      ],
      [
        "Ġc",
        "o"
      ],
      [
        "Ġ19",
        "8"
      ],
      [
        "w",
        "ay"
      ],
      [
        "Ġh",
        "im"
      ],
      [
        "Ġf",
        "l"
      ],
      [
        "e",
        "g"
      ],
      [
        "Ġt",
        "rans"
      ],
      [
        "h",
        "ip"
      ],
      [
        "ut",
        "ion"
      ],
      [
        "er",
        "man"
      ],
      [
        "Ġt",
        "er"
      ],
      [
        "Ġwor",
        "k"
      ],
      [
        "in",
        "es"
      ],
      [
        "Ġp",
        "ubl"
      ],
      [
        "l",
        "i"
      ],
      [
        "Ġa",
        "m"
      ],
      [
        "ist",
        "s"
      ],
      [
        "Ġa",
        "c"
      ],
      [
        "Ġc",
        "all"
      ],
      [
        "Ġ",
        "6"
      ],
      [
        "Ðµ",
        "ÑĢ"
      ],
      [
        "Ġc",
        "ol"
      ],
      [
        "er",
        "n"
      ],
      [
        "j",
        "ect"
      ],
      [
        "ĠUn",
        "ited"
      ],
      [
        "Ġm",
        "od"
      ],
      [
        "Ġab",
        "out"
      ],
      [
        "or",
        "th"
      ],
      [
        "Ġas",
        "s"
      ],
      [
        "Ġm",
        "ay"
      ],
      [
        "il",
        "y"
      ],
      [
        "ĠC",
        "ount"
      ],
      [
        "in",
        "s"
      ],
      [
        "Ð¾Ð",
        "»"
      ],
      [
        "at",
        "ing"
      ],
      [
        "a",
        "h"
      ],
      [
        "Ġman",
        "y"
      ],
      [
        "Ġd",
        "uring"
      ],
      [
        "Ġse",
        "c"
      ],
      [
        "1",
        "8"
      ],
      [
        "Ġ19",
        "7"
      ],
      [
        "t",
        "ed"
      ],
      [
        "Ġt",
        "ra"
      ],
      [
        "al",
        "e"
      ],
      [
        "Ġth",
        "rough"
      ],
      [
        "\"",
        ","
      ],
      [
        "o",
        "ol"
      ],
      [
        "or",
        "k"
      ],
      [
        "vel",
        "op"
      ],
      [
        "Ġsy",
        "stem"
      ],
      [
        "Ġde",
        "f"
      ],
      [
        "Ġin",
        "v"
      ],
      [
        "ct",
        "ed"
      ],
      [
        "Ġre",
        "m"
      ],
      [
        "ĠS",
        "e"
      ],
      [
        "r",
        "ic"
      ],
      [
        "i",
        "x"
      ],
      [
        "Ġl",
        "oc"
      ],
      [
        "oll",
        "ow"
      ],
      [
        "in",
        "al"
      ],
      [
        "Ġs",
        "et"
      ],
      [
        "a",
        "j"
      ],
      [
        "t",
        "le"
      ],
      [
        "ver",
        "y"
      ],
      [
        "he",
        "s"
      ],
      [
        "ou",
        "se"
      ],
      [
        "Ġe",
        "m"
      ],
      [
        "if",
        "e"
      ],
      [
        "Ġpe",
        "ople"
      ],
      [
        "Ġsu",
        "pp"
      ],
      [
        "Ġ",
        "est"
      ],
      [
        "Ġb",
        "l"
      ],
      [
        "Ġs",
        "erv"
      ],
      [
        "os",
        "s"
[...]
